{
  "version": "1.0",
  "truncation": null,
  "padding": null,
  "added_tokens": [
    {
      "id": 0,
      "content": "<|question|>",
      "single_word": false,
      "lstrip": false,
      "rstrip": false,
      "normalized": false,
      "special": true
    },
    {
      "id": 1,
      "content": "<|answer|>",
      "single_word": false,
      "lstrip": false,
      "rstrip": false,
      "normalized": false,
      "special": true
    },
    {
      "id": 2,
      "content": "<|end_question|>",
      "single_word": false,
      "lstrip": false,
      "rstrip": false,
      "normalized": false,
      "special": true
    },
    {
      "id": 3,
      "content": "<|end_answer|>",
      "single_word": false,
      "lstrip": false,
      "rstrip": false,
      "normalized": false,
      "special": true
    },
    {
      "id": 4,
      "content": "<|context|>",
      "single_word": false,
      "lstrip": false,
      "rstrip": false,
      "normalized": false,
      "special": true
    },
    {
      "id": 5,
      "content": "<|end_context|>",
      "single_word": false,
      "lstrip": false,
      "rstrip": false,
      "normalized": false,
      "special": true
    },
    {
      "id": 6,
      "content": "<|pad|>",
      "single_word": false,
      "lstrip": false,
      "rstrip": false,
      "normalized": false,
      "special": true
    }
  ],
  "normalizer": null,
  "pre_tokenizer": {
    "type": "ByteLevel",
    "add_prefix_space": false,
    "trim_offsets": true,
    "use_regex": true
  },
  "post_processor": {
    "type": "ByteLevel",
    "add_prefix_space": true,
    "trim_offsets": false,
    "use_regex": true
  },
  "decoder": {
    "type": "ByteLevel",
    "add_prefix_space": true,
    "trim_offsets": true,
    "use_regex": true
  },
  "model": {
    "type": "BPE",
    "dropout": null,
    "unk_token": null,
    "continuing_subword_prefix": null,
    "end_of_word_suffix": null,
    "fuse_unk": false,
    "byte_fallback": false,
    "ignore_merges": false,
    "vocab": {
      "<|question|>": 0,
      "<|answer|>": 1,
      "<|end_question|>": 2,
      "<|end_answer|>": 3,
      "<|context|>": 4,
      "<|end_context|>": 5,
      "<|pad|>": 6,
      "!": 7,
      "\"": 8,
      "#": 9,
      "$": 10,
      "%": 11,
      "&": 12,
      "'": 13,
      "(": 14,
      ")": 15,
      "*": 16,
      "+": 17,
      ",": 18,
      "-": 19,
      ".": 20,
      "/": 21,
      "0": 22,
      "1": 23,
      "2": 24,
      "3": 25,
      "4": 26,
      "5": 27,
      "6": 28,
      "7": 29,
      "8": 30,
      "9": 31,
      ":": 32,
      ";": 33,
      "<": 34,
      "=": 35,
      ">": 36,
      "?": 37,
      "@": 38,
      "A": 39,
      "B": 40,
      "C": 41,
      "D": 42,
      "E": 43,
      "F": 44,
      "G": 45,
      "H": 46,
      "I": 47,
      "J": 48,
      "K": 49,
      "L": 50,
      "M": 51,
      "N": 52,
      "O": 53,
      "P": 54,
      "Q": 55,
      "R": 56,
      "S": 57,
      "T": 58,
      "U": 59,
      "V": 60,
      "W": 61,
      "X": 62,
      "Y": 63,
      "Z": 64,
      "[": 65,
      "\\": 66,
      "]": 67,
      "^": 68,
      "_": 69,
      "`": 70,
      "a": 71,
      "b": 72,
      "c": 73,
      "d": 74,
      "e": 75,
      "f": 76,
      "g": 77,
      "h": 78,
      "i": 79,
      "j": 80,
      "k": 81,
      "l": 82,
      "m": 83,
      "n": 84,
      "o": 85,
      "p": 86,
      "q": 87,
      "r": 88,
      "s": 89,
      "t": 90,
      "u": 91,
      "v": 92,
      "w": 93,
      "x": 94,
      "y": 95,
      "z": 96,
      "{": 97,
      "|": 98,
      "}": 99,
      "~": 100,
      "¡": 101,
      "¢": 102,
      "£": 103,
      "¤": 104,
      "¥": 105,
      "¦": 106,
      "§": 107,
      "¨": 108,
      "©": 109,
      "ª": 110,
      "«": 111,
      "¬": 112,
      "®": 113,
      "¯": 114,
      "°": 115,
      "±": 116,
      "²": 117,
      "³": 118,
      "´": 119,
      "µ": 120,
      "¶": 121,
      "·": 122,
      "¸": 123,
      "¹": 124,
      "º": 125,
      "»": 126,
      "¼": 127,
      "½": 128,
      "¾": 129,
      "¿": 130,
      "À": 131,
      "Á": 132,
      "Â": 133,
      "Ã": 134,
      "Ä": 135,
      "Å": 136,
      "Æ": 137,
      "Ç": 138,
      "È": 139,
      "É": 140,
      "Ê": 141,
      "Ë": 142,
      "Ì": 143,
      "Í": 144,
      "Î": 145,
      "Ï": 146,
      "Ð": 147,
      "Ñ": 148,
      "Ò": 149,
      "Ó": 150,
      "Ô": 151,
      "Õ": 152,
      "Ö": 153,
      "×": 154,
      "Ø": 155,
      "Ù": 156,
      "Ú": 157,
      "Û": 158,
      "Ü": 159,
      "Ý": 160,
      "Þ": 161,
      "ß": 162,
      "à": 163,
      "á": 164,
      "â": 165,
      "ã": 166,
      "ä": 167,
      "å": 168,
      "æ": 169,
      "ç": 170,
      "è": 171,
      "é": 172,
      "ê": 173,
      "ë": 174,
      "ì": 175,
      "í": 176,
      "î": 177,
      "ï": 178,
      "ð": 179,
      "ñ": 180,
      "ò": 181,
      "ó": 182,
      "ô": 183,
      "õ": 184,
      "ö": 185,
      "÷": 186,
      "ø": 187,
      "ù": 188,
      "ú": 189,
      "û": 190,
      "ü": 191,
      "ý": 192,
      "þ": 193,
      "ÿ": 194,
      "Ā": 195,
      "ā": 196,
      "Ă": 197,
      "ă": 198,
      "Ą": 199,
      "ą": 200,
      "Ć": 201,
      "ć": 202,
      "Ĉ": 203,
      "ĉ": 204,
      "Ċ": 205,
      "ċ": 206,
      "Č": 207,
      "č": 208,
      "Ď": 209,
      "ď": 210,
      "Đ": 211,
      "đ": 212,
      "Ē": 213,
      "ē": 214,
      "Ĕ": 215,
      "ĕ": 216,
      "Ė": 217,
      "ė": 218,
      "Ę": 219,
      "ę": 220,
      "Ě": 221,
      "ě": 222,
      "Ĝ": 223,
      "ĝ": 224,
      "Ğ": 225,
      "ğ": 226,
      "Ġ": 227,
      "ġ": 228,
      "Ģ": 229,
      "ģ": 230,
      "Ĥ": 231,
      "ĥ": 232,
      "Ħ": 233,
      "ħ": 234,
      "Ĩ": 235,
      "ĩ": 236,
      "Ī": 237,
      "ī": 238,
      "Ĭ": 239,
      "ĭ": 240,
      "Į": 241,
      "į": 242,
      "İ": 243,
      "ı": 244,
      "Ĳ": 245,
      "ĳ": 246,
      "Ĵ": 247,
      "ĵ": 248,
      "Ķ": 249,
      "ķ": 250,
      "ĸ": 251,
      "Ĺ": 252,
      "ĺ": 253,
      "Ļ": 254,
      "ļ": 255,
      "Ľ": 256,
      "ľ": 257,
      "Ŀ": 258,
      "ŀ": 259,
      "Ł": 260,
      "ł": 261,
      "Ń": 262,
      "á»": 263,
      "áº": 264,
      "ng": 265,
      "Ġt": 266,
      "Ġc": 267,
      "ĠÄ": 268,
      "nh": 269,
      "ĠÄĳ": 270,
      "Ãł": 271,
      "Æ°": 272,
      "Ġth": 273,
      "Ġv": 274,
      "Ã¡": 275,
      "Ġl": 276,
      "Ġh": 277,
      "Ġch": 278,
      "iá»": 279,
      "Ġm": 280,
      "Ġk": 281,
      "Ġb": 282,
      "Ġtr": 283,
      "Ġnh": 284,
      "Æ°á»": 285,
      "Ġs": 286,
      "áº¡": 287,
      "Ã´": 288,
      "áº¿": 289,
      "Ġn": 290,
      "Ġkh": 291,
      "Ãª": 292,
      "Ġg": 293,
      "Ġd": 294,
      "áº£": 295,
      "Ã³": 296,
      "á»Ļ": 297,
      "Ġng": 298,
      "áº¥": 299,
      "Ġp": 300,
      "Ġph": 301,
      "iá»ĩ": 302,
      "á»ĳ": 303,
      "Ã¢": 304,
      "Ã¡c": 305,
      "Ã´ng": 306,
      "Ãªn": 307,
      "ĠT": 308,
      "Ã¬": 309,
      "ĠÄĳá»": 310,
      "ĠvÃł": 311,
      "Ġvá»": 312,
      "Æ¡": 313,
      "á»§": 314,
      "áºŃ": 315,
      "ĠlÃł": 316,
      "Ġgi": 317,
      "áº§": 318,
      "qu": 319,
      "Ġqu": 320,
      "Ġthá»": 321,
      "ÃŃ": 322,
      "Ġr": 323,
      "iáº¿": 324,
      "Æ°á»Ŀ": 325,
      "Ľi": 326,
      "Æ°á»£": 327,
      "Ġtá»": 328,
      "áº¥t": 329,
      "Ġx": 330,
      "ĠcÃ³": 331,
      "Ġcá»§": 332,
      "Ġcá»§a": 333,
      "áº¡i": 334,
      "uy": 335,
      "ĠN": 336,
      "Äĥ": 337,
      "Ġhá»": 338,
      "ĠC": 339,
      "ĠcÃ¡c": 340,
      "Ãº": 341,
      "ong": 342,
      "Ã£": 343,
      "an": 344,
      "Ã¬nh": 345,
      "Ġchá»": 346,
      "áº¯": 347,
      "Æ°á»£c": 348,
      "á»±": 349,
      "Ã¢n": 350,
      "iá»ģ": 351,
      "âĢ": 352,
      "á»¯": 353,
      "á»Ļt": 354,
      "ĠH": 355,
      "á»ĭ": 356,
      "ĠÄĳÆ°á»£c": 357,
      "ch": 358,
      "Ġcho": 359,
      "ĠkhÃ´ng": 360,
      "á»¥": 361,
      "Ã²": 362,
      "iá»ĩn": 363,
      "Ãły": 364,
      "ay": 365,
      "á»Ł": 366,
      "Ġmá»Ļt": 367,
      "Ġtrong": 368,
      "inh": 369,
      "áº·": 370,
      "iÃªn": 371,
      "Ã¹": 372,
      "Ġvá»Ľi": 373,
      "ĠB": 374,
      "ĠÄĲ": 375,
      "Æ°á»Ŀi": 376,
      "ĠV": 377,
      "Æ°á»Ľ": 378,
      "áº¡n": 379,
      "áº§n": 380,
      "ao": 381,
      "iá»ģu": 382,
      "Æ°Æ¡": 383,
      "Ġngh": 384,
      "anh": 385,
      "á»¯ng": 386,
      "ang": 387,
      "Ãłnh": 388,
      "iá»ĥ": 389,
      "Æ°á»Ŀng": 390,
      "©ng": 391,
      "áº£i": 392,
      "ĠngÆ°á»Ŀi": 393,
      "ĠTh": 394,
      "Ãłng": 395,
      "Ġ1": 396,
      "áº£n": 397,
      "Ġnhá»¯ng": 398,
      "ĠnhÆ°": 399,
      "ĠM": 400,
      "Ġmá»": 401,
      "Æ°Æ¡ng": 402,
      "ai": 403,
      "Ãłn": 404,
      "am": 405,
      "©c": 406,
      "á»ĩ": 407,
      "áº§u": 408,
      "ĠÄĳá»Ļ": 409,
      "Ã¢y": 410,
      "Æ°á»Ľc": 411,
      "Ġho": 412,
      "Ãłi": 413,
      "in": 414,
      "Ã´i": 415,
      "áº¿n": 416,
      "ung": 417,
      "ĠL": 418,
      "Ġ2": 419,
      "ĠÄĳÃ£": 420,
      "ĠÄĳá»ĥ": 421,
      "ĠS": 422,
      "Ġthá»ĥ": 423,
      "on": 424,
      "áºŃn": 425,
      "iáº¿t": 426,
      "ÃŃnh": 427,
      "á»Ń": 428,
      "uá»ĳ": 429,
      "áºŃt": 430,
      "á»ķ": 431,
      "ĠP": 432,
      "Ã½": 433,
      "Ŀi": 434,
      "á»ĵ": 435,
      "Äĥng": 436,
      "Ġbáº¡n": 437,
      "áº¿t": 438,
      "áº½": 439,
      "Ã¹ng": 440,
      "au": 441,
      "ĠcÃ´ng": 442,
      "áº©": 443,
      "Æ¡n": 444,
      "..": 445,
      "ĠâĢ": 446,
      "Ġlá»": 447,
      "ĠnÃły": 448,
      "Ã¡n": 449,
      "Ġhá»į": 450,
      "ĠK": 451,
      "Ġtá»«": 452,
      "ĠÄĳáº¿n": 453,
      "ĠCh": 454,
      "iá»ĩt": 455,
      "ĠTr": 456,
      "Ġ(": 457,
      "á»Ļi": 458,
      "Ġsá»ĳ": 459,
      "Ġkhi": 460,
      "á»ĳi": 461,
      "Ã©": 462,
      "Ã¡t": 463,
      "Å©ng": 464,
      "á»į": 465,
      "ĠÄĳÃ³": 466,
      "Äĥm": 467,
      "Ġsáº½": 468,
      "Ġra": 469,
      "Ġgiá»": 470,
      "ĠlÃłm": 471,
      "iÃª": 472,
      "Ġvá»ģ": 473,
      "Ã¡ch": 474,
      "iáº¿n": 475,
      "áº±": 476,
      "Ġcáº£": 477,
      "Ã¡i": 478,
      "Ġdá»¥": 479,
      "Ġthu": 480,
      "Ġnhiá»ģu": 481,
      "Ġá»Ł": 482,
      "áº¥y": 483,
      "eo": 484,
      "ĠmÃł": 485,
      "ĠcÅ©ng": 486,
      "Ã¡ng": 487,
      "ĠD": 488,
      "iá»ĩu": 489,
      "áºŃp": 490,
      "ĠG": 491,
      "Ã¡o": 492,
      "ĠÄĳá»ĭ": 493,
      "Ġtáº¡i": 494,
      "ĠNg": 495,
      "ĠvÃło": 496,
      "iá»ĩc": 497,
      "á»ģ": 498,
      "ĠhÃłng": 499,
      "ĠtrÃªn": 500,
      "Äĥn": 501,
      "Ġláº¡i": 502,
      "00": 503,
      "ĠPh": 504,
      "Ãºng": 505,
      "Ã²ng": 506,
      "Ġsá»±": 507,
      "áº«": 508,
      "ĠnhÃł": 509,
      "ÃŃch": 510,
      "áº¥p": 511,
      "em": 512,
      "Ã¢m": 513,
      "Ġhiá»ĩn": 514,
      "Ġchá»ī": 515,
      "Ġdá»¥ng": 516,
      "áº·c": 517,
      "ĠA": 518,
      "Ġviá»ĩc": 519,
      "áº£o": 520,
      "Ãło": 521,
      "ĠÄĳáº§u": 522,
      "Ä©": 523,
      "Ġbá»ĭ": 524,
      "ĠQ": 525,
      "Æ°á»£ng": 526,
      "ĠNh": 527,
      "ĠÄĳá»Ļng": 528,
      "ĠthÃłnh": 529,
      "Ġpháº£i": 530,
      "Ġnháº¥t": 531,
      "±c": 532,
      "Ã¡p": 533,
      "ĠÄĳá»ĵ": 534,
      "ĠnÃ³": 535,
      "ĠthÃ¬": 536,
      "Ã²n": 537,
      "ĠnÄĥm": 538,
      "áº»": 539,
      "áº·t": 540,
      "áº¹": 541,
      "áº±ng": 542,
      "áº¯c": 543,
      "Ġhá»įc": 544,
      "áº¡o": 545,
      "Ġquy": 546,
      "uyÃªn": 547,
      "Ġdo": 548,
      "Ġ-": 549,
      "er": 550,
      "ĠnÆ°á»Ľc": 551,
      "01": 552,
      "á»±c": 553,
      "£p": 554,
      "Ã¢u": 555,
      "âĢĿ": 556,
      "en": 557,
      "Ã´n": 558,
      "Ã¡nh": 559,
      "ĥn": 560,
      "á»ı": 561,
      "ĠngÃły": 562,
      "Ġhá»£p": 563,
      "Ġlo": 564,
      "á»Ļc": 565,
      "ĠgiÃ¡": 566,
      "ĠtÃ´i": 567,
      "Ġto": 568,
      "áº¡t": 569,
      "Ãºc": 570,
      "iá»ĥm": 571,
      "Ġy": 572,
      "á»ģn": 573,
      "áº©m": 574,
      "ĠchÃŃnh": 575,
      "ĠhÆ¡n": 576,
      "Ìģ": 577,
      "Ġsáº£n": 578,
      "ĠÄĳá»ĭnh": 579,
      "Ġquan": 580,
      "Ġ3": 581,
      "Ġtiáº¿": 582,
      "ĠâĢľ": 583,
      "ĠnhÃ¢n": 584,
      "ĠÄĳi": 585,
      "Æ¡i": 586,
      "Ġcao": 587,
      "áº«n": 588,
      "áº¥n": 589,
      "á»ĭch": 590,
      "Ġnghiá»ĩ": 591,
      "ĠnÃªn": 592,
      "uyá»ĩ": 593,
      "áº¯t": 594,
      "ĠÄĳá»ģ": 595,
      "ĠmÃ¬nh": 596,
      "Ġgia": 597,
      "Æ°a": 598,
      "Ġsá»Ń": 599,
      "ĠcÃ²n": 600,
      "áº£ng": 601,
      "áº¿u": 602,
      "Ġráº¥t": 603,
      "Ġtheo": 604,
      "Ġthá»Ŀi": 605,
      "Ġtá»ĳ": 606,
      "ĠcÆ¡": 607,
      "ÄĲ": 608,
      "Ġkho": 609,
      "ĠÄĳá»ĵng": 610,
      "Ġsinh": 611,
      "Ã¡y": 612,
      "Ġdá»±": 613,
      "á»ĳng": 614,
      "ĠtrÆ°á»Ŀng": 615,
      "iá»ģn": 616,
      "Ġthá»±c": 617,
      "Ġtháº¿": 618,
      "iá»ĥn": 619,
      "Æ°á»Ł": 620,
      "á»¥c": 621,
      "ĠcÃ¡ch": 622,
      "ĠthÃ´ng": 623,
      "Ġká»": 624,
      "ĠÄĳiá»ģu": 625,
      "Ġcon": 626,
      "Æ°á»Łng": 627,
      "ĠNam": 628,
      "áº¡nh": 629,
      "uyá»": 630,
      "á»©": 631,
      "ar": 632,
      "Ġmá»Ľi": 633,
      "Ġsau": 634,
      "uáº¥t": 635,
      "ĠchÃºng": 636,
      "á»©c": 637,
      "iá»ĥu": 638,
      "ĠkhÃ¡ch": 639,
      "ĠhÃ¬nh": 640,
      "ÌĢ": 641,
      "ħn": 642,
      "ĠViá»ĩt": 643,
      "Ì£": 644,
      "ia": 645,
      "Ġlu": 646,
      "á»ķi": 647,
      "ĠcÃ¹ng": 648,
      "ĠKh": 649,
      "ua": 650,
      "Ġta": 651,
      "Ġcáº¥p": 652,
      "ĠnhÆ°ng": 653,
      "ĠtrÃ¬nh": 654,
      "ĠhÃłnh": 655,
      "ĠlÃ½": 656,
      "ĠkhÃ¡c": 657,
      "ĠviÃªn": 658,
      "iÃªu": 659,
      "ĠnÄĥng": 660,
      "Ġpháº©m": 661,
      "im": 662,
      "ĠlÆ°á»£ng": 663,
      "ĠÄĳang": 664,
      "á»ĳc": 665,
      "Ġvá»¥": 666,
      "Ġtin": 667,
      "Ġcháº¥t": 668,
      "áº¡ng": 669,
      "Ġqua": 670,
      "ĠphÃ¡t": 671,
      "ĠlÃªn": 672,
      "Ġlá»Ľ": 673,
      "Ġbiáº¿t": 674,
      "Ġcáº§n": 675,
      "ĠtÆ°": 676,
      "uyá»ĩn": 677,
      "ĠÄĳÃ¢y": 678,
      "ĠnháºŃn": 679,
      "áº¥u": 680,
      "Ġnghiá»ĩp": 681,
      "Ġtá»±": 682,
      "uá»ĳc": 683,
      "áº£m": 684,
      "Ġhay": 685,
      "Ãºp": 686,
      "...": 687,
      "Ġgian": 688,
      "Ġtu": 689,
      "ĠtÃ¢m": 690,
      "ĠnÃło": 691,
      "ĠvÃ¬": 692,
      "ĠnÃ³i": 693,
      "Ġthiáº¿t": 694,
      "ĠmÃ¡y": 695,
      "Ã³a": 696,
      "Ġbá»Ļ": 697,
      "ĠdÃ¢n": 698,
      "á»ĵi": 699,
      "Ġkáº¿t": 700,
      "Ġbáº£o": 701,
      "ĠtoÃłn": 702,
      "á»«": 703,
      "á»ĩnh": 704,
      "Ġtáº¡o": 705,
      "Ġloáº¡i": 706,
      "áºŃy": 707,
      "Ġxuáº¥t": 708,
      "Ġmáº·t": 709,
      "Ãªu": 710,
      "Ġtá»ķ": 711,
      "Ġvá»ĭ": 712,
      "áº¡ch": 713,
      "Ġkinh": 714,
      "á»£": 715,
      "Ġxe": 716,
      "ĠÄĳá»ĳi": 717,
      "áº¯n": 718,
      "Ġthá»ĭ": 719,
      "Ġbáº±ng": 720,
      "al": 721,
      "ĠgiÃºp": 722,
      "ĠtrÆ°á»Ľc": 723,
      "ĠtÃ¡c": 724,
      "Ġcáº§u": 725,
      "Ġhá»Ļi": 726,
      "Ãºt": 727,
      "or": 728,
      "Ġhoáº·c": 729,
      "Ġtáº¿": 730,
      "ĠÄĳiá»ĥm": 731,
      "Ġtá»ĳt": 732,
      "it": 733,
      "Ġtháº¥y": 734,
      "Ã¨": 735,
      "Ġ4": 736,
      "Æ°á»Ľng": 737,
      "Ġ201": 738,
      "Ġngo": 739,
      "Ġhiá»ĩu": 740,
      "âĢ¦": 741,
      "Ġtiáº¿p": 742,
      "Ġ5": 743,
      "ĠtÃŃnh": 744,
      "ĠâĢĵ": 745,
      "ĠÄĳÆ°á»Ŀng": 746,
      "ĠX": 747,
      "ĠÃ´ng": 748,
      "Ġchá»©c": 749,
      "ĠQu": 750,
      "ĠthÆ°á»Ŀng": 751,
      "Ĺi": 752,
      "ĠtÃ¬nh": 753,
      "Ġhá»ĩ": 754,
      "Ãªm": 755,
      "Ġcu": 756,
      "uá»ĳn": 757,
      "á»©ng": 758,
      "es": 759,
      "Th": 760,
      "ĠphÃ²ng": 761,
      "Ġchá»§": 762,
      "Ġquáº£": 763,
      "Ġnay": 764,
      "Ġbáº£n": 765,
      "Ġpháº§n": 766,
      "Ġná»¯": 767,
      "ĠÃ½": 768,
      "ĠÄĳo": 769,
      "áº¯ng": 770,
      "áº¹p": 771,
      "Å©": 772,
      "ĠGi": 773,
      "Ġanh": 774,
      "ĠdÃ¹ng": 775,
      "ĠnhiÃªn": 776,
      "ĠR": 777,
      "á»Ńa": 778,
      "Æ°u": 779,
      "ĠÄĥn": 780,
      "ĠphÃŃ": 781,
      "Ġtrá»į": 782,
      "áº£nh": 783,
      "á»Ļng": 784,
      "Ġlá»Ľn": 785,
      "Ġkhu": 786,
      "Ġem": 787,
      "uyá»ĥn": 788,
      "et": 789,
      "Ġtá»Ľi": 790,
      "Ġgiá»Ľi": 791,
      "áº¡c": 792,
      "ĠÄĳáº¡i": 793,
      "Ġkáº¿": 794,
      "Ġthá»©c": 795,
      "Ã³ng": 796,
      "ĠphÃ¡p": 797,
      "Ġgiáº£i": 798,
      "Ġbá»ĩnh": 799,
      "Ġhá»ĵ": 800,
      "Ġtrá»ĭ": 801,
      "áº³": 802,
      "Ġcáº£m": 803,
      "Ġsá»ĳng": 804,
      "Ġchá»į": 805,
      "Ġdá»ĭch": 806,
      "ĠÄĳiá»ĩn": 807,
      "áº©n": 808,
      "ĠÃ": 809,
      "iá»ĩm": 810,
      "Æ°ng": 811,
      "Ġdoanh": 812,
      "iá»ħn": 813,
      "Ġhai": 814,
      "ĠquÃ¡": 815,
      "Ġchá»įn": 816,
      "Ġcá»©": 817,
      "ĠÄĳáº¹p": 818,
      "ĠgÃ¬": 819,
      "á»Łi": 820,
      "Ġtriá»ĥn": 821,
      "at": 822,
      "Ġgiá»¯": 823,
      "ĠtÄĥng": 824,
      "Ã¬m": 825,
      "Ġtiá»ģn": 826,
      "ĠbÃ¡n": 827,
      "ĠyÃªu": 828,
      "Ġtrá»įng": 829,
      "Ġváº«n": 830,
      "Ġtho": 831,
      "á»ĵng": 832,
      "ĠÃ¡n": 833,
      "Ã¡m": 834,
      "«a": 835,
      "ĠthÃ¡ng": 836,
      "ĠváºŃy": 837,
      "Ġan": 838,
      "Ġmang": 839,
      "Ġtrang": 840,
      "Ġthá»ĳng": 841,
      "Ġty": 842,
      "Ìī": 843,
      "ĠtáºŃp": 844,
      "ĠHo": 845,
      "Ġmuá»ĳn": 846,
      "Ãµ": 847,
      "ĠdÆ°á»": 848,
      "ĠliÃªn": 849,
      "Tr": 850,
      "áº§m": 851,
      "īnh": 852,
      "Ġbiá»ĩt": 853,
      "uyá»ģn": 854,
      "Ġmua": 855,
      "Ġchiáº¿": 856,
      "ĠtiÃªu": 857,
      "ĠI": 858,
      "Ġchu": 859,
      "ĠtÃłi": 860,
      "áº³ng": 861,
      "el": 862,
      "Ġthá»§": 863,
      "ĠthÆ°Æ¡ng": 864,
      "ĠÄĳá»ķ": 865,
      "Ġtrá»Ł": 866,
      "ĠÄĳá»ģu": 867,
      "ĠnghÄ©": 868,
      "Ã³c": 869,
      "ĠhÃ³a": 870,
      "Ġ\"": 871,
      "Ġhoáº¡t": 872,
      "áº¡m": 873,
      "Ġáº£nh": 874,
      "ĠQuá»ĳc": 875,
      "Ġtay": 876,
      "á»Ľ": 877,
      "áº§y": 878,
      "Ġlá»±c": 879,
      "Ġcuá»Ļc": 880,
      "om": 881,
      "á»¹": 882,
      "Ġ6": 883,
      "Ġnhau": 884,
      "Ġtrung": 885,
      "Ġláº§n": 886,
      "ĠcÃ¡i": 887,
      "Ġráº±ng": 888,
      "201": 889,
      "Ġváº¥n": 890,
      "ĠhoÃłn": 891,
      "ic": 892,
      "ĠU": 893,
      "ĠtÃ¬m": 894,
      "ĠcÃ´": 895,
      "ĠphÆ°Æ¡ng": 896,
      "uá»ĳng": 897,
      "ĠÄĳÆ¡n": 898,
      "ĠvÄĥn": 899,
      "Ġchá»ĭ": 900,
      "Ch": 901,
      "Ġbao": 902,
      "ĠÄĳáº¥t": 903,
      "ĠtrÃŃ": 904,
      "Ġvi": 905,
      "ĠÄĳá»ĭa": 906,
      "ĠbÃªn": 907,
      "Ġgiao": 908,
      "ĠbÃ¡o": 909,
      "Ġquá»ĳc": 910,
      "Ġda": 911,
      "ĠTrung": 912,
      "Ġbáº¥t": 913,
      "á»ħ": 914,
      "ĠCÃ´ng": 915,
      "Ġmá»į": 916,
      "Ġthi": 917,
      "Ġtá»¥": 918,
      "á»ĵn": 919,
      "ĠF": 920,
      "Ġliá»ĩu": 921,
      "ĠsÃ¡ng": 922,
      "Ġsá»Ł": 923,
      "Ġchi": 924,
      "hi": 925,
      "ĠchuyÃªn": 926,
      "ĠngoÃłi": 927,
      "Ġtham": 928,
      "ĠthÃªm": 929,
      "Ġtiáº¿ng": 930,
      "ĠthÃ¢n": 931,
      "ĠtÃŃch": 932,
      "áº¯m": 933,
      "ĠhÃ£": 934,
      "Ġso": 935,
      "Ã©p": 936,
      "Ġá»©ng": 937,
      "ĠHÃł": 938,
      "as": 939,
      "áºŃu": 940,
      "ĠbÃłi": 941,
      "ĠchÆ°a": 942,
      "Ġnáº¿u": 943,
      "Ġcháº¿": 944,
      "Ġdáº«n": 945,
      "á»Ŀi": 946,
      "áº¥m": 947,
      "á»ī": 948,
      "áº±m": 949,
      "ĠE": 950,
      "ĠÄĳá»ķi": 951,
      "Ġchuyá»ĥn": 952,
      "Ġrá»ĵi": 953,
      "Ã²a": 954,
      "ĠÄĳáº·c": 955,
      "Ġvá»«a": 956,
      "Ġtráº»": 957,
      "Ġgiá»Ŀ": 958,
      "Ġdá»±ng": 959,
      "Ã©t": 960,
      "£i": 961,
      "Ġthá»©": 962,
      "Ġ0": 963,
      "Ġquyáº¿t": 964,
      "Ġmá»įi": 965,
      "ĠxÃ£": 966,
      "Ġsá»©c": 967,
      "Ã¬n": 968,
      "ĠluÃ´n": 969,
      "á»Ŀ": 970,
      "ĠthÃŃch": 971,
      "Ġhá»Ļ": 972,
      "Ġbu": 973,
      "á»±a": 974,
      "ĠnÆ¡i": 975,
      "áº¯p": 976,
      "Ġgiáº£m": 977,
      "Ġsao": 978,
      "ıi": 979,
      "Ġ7": 980,
      "ro": 981,
      "ac": 982,
      "Ġnghá»ĩ": 983,
      "ĠkhÃ³": 984,
      "ĠxÃ¢y": 985,
      "Ġcung": 986,
      "á»Ľi": 987,
      ").": 988,
      "ĠhÆ°á»Ľng": 989,
      "le": 990,
      "ĠÄĳáº·t": 991,
      "Ġngay": 992,
      "Ġná»Ļi": 993,
      "Ġmáº¡nh": 994,
      "ĠmÃłu": 995,
      "Ġxem": 996,
      "Ġ10": 997,
      "Ġtuá»ķi": 998,
      "Ġnhá»ı": 999,
      "Ġquyá»ģn": 1000,
      "Ġkhá»ı": 1001,
      "ĠÄĳáº¡o": 1002,
      "ĠváºŃt": 1003,
      "Ġtá»īnh": 1004,
      "Ng": 1005,
      "Ġká»³": 1006,
      "000": 1007,
      "iáº¿u": 1008,
      "Ġthay": 1009,
      "Ġ,": 1010,
      "Ġtiáº¿t": 1011,
      "Ġlá»ĭch": 1012,
      "Ġdu": 1013,
      "Ġ8": 1014,
      "Ġgá»į": 1015,
      "Ġmáº¯t": 1016,
      "ĠthuáºŃt": 1017,
      "Ġphá»¥c": 1018,
      "Ġvá»±c": 1019,
      "Nh": 1020,
      "Ġdá»ħ": 1021,
      "iÃªm": 1022,
      "Ġphá»ĳ": 1023,
      "uyáº¿n": 1024,
      "uyá»ħn": 1025,
      "Ġnhanh": 1026,
      "ĠÄĳÃ¬nh": 1027,
      "Ġtá»¥c": 1028,
      "Ġbiáº¿n": 1029,
      "áº·p": 1030,
      "ĠphÃ¢n": 1031,
      "ĠgÃ¢y": 1032,
      "áº«u": 1033,
      "is": 1034,
      "ĠláºŃp": 1035,
      "á»įc": 1036,
      "Ġháº¿t": 1037,
      "Ġthuá»Ļc": 1038,
      "Ġchá»©ng": 1039,
      "Ã´m": 1040,
      "ĠbÃ¬nh": 1041,
      "Ġphá»¥": 1042,
      "ĠlÃºc": 1043,
      "ĠsÄ©": 1044,
      "Ġdiá»ĩn": 1045,
      "Ġbáº¯t": 1046,
      "ÃŃt": 1047,
      "ĠgiÃ¡o": 1048,
      "Ġkiáº¿n": 1049,
      "),": 1050,
      "ĠÄĳÆ°a": 1051,
      "ĠÄĳÃ¡nh": 1052,
      "ÃŃn": 1053,
      "Ġlá»£i": 1054,
      "ol": 1055,
      "áº¡y": 1056,
      "ĠÄĳá»§": 1057,
      "ĠnguyÃªn": 1058,
      "Ġlá»Ŀi": 1059,
      "Ġgáº§n": 1060,
      "Ġmá»Ĺi": 1061,
      "ĠvÃ´": 1062,
      "Ġtrá»£": 1063,
      "uá»ĳi": 1064,
      "ĠNá»Ļi": 1065,
      "ĠsÃ¡ch": 1066,
      "ĠlÃ£": 1067,
      "Ġthanh": 1068,
      "ĠcÃ¡": 1069,
      "ĠtiÃªn": 1070,
      "Ġkiá»ĩn": 1071,
      "Ġca": 1072,
      "Ġtá»«ng": 1073,
      "ĠtÆ°á»£ng": 1074,
      "á»ĥ": 1075,
      "ĠbÃłn": 1076,
      "ĠMá»¹": 1077,
      "Ġtruyá»ģn": 1078,
      "ĠY": 1079,
      "ĠlÃ²ng": 1080,
      "áº·ng": 1081,
      "Ġtinh": 1082,
      "ĠNguyá»ħn": 1083,
      "ui": 1084,
      "th": 1085,
      "Ġchiáº¿c": 1086,
      "Ġnghiá»ĩm": 1087,
      "ĠW": 1088,
      "Ġtá»Ń": 1089,
      "Ġná»¯a": 1090,
      "Ġkhiáº¿n": 1091,
      "á»ĳn": 1092,
      "ĠtháºŃt": 1093,
      "Ġmáº¹": 1094,
      "Ä©nh": 1095,
      "ĠcÄĥn": 1096,
      "ĠBá»Ļ": 1097,
      "ad": 1098,
      "ing": 1099,
      "Ġbá»Łi": 1100,
      "Ġvá»ĩ": 1101,
      "ĠnhÃ¬n": 1102,
      "Ġcá»ķ": 1103,
      "Ġmá»©c": 1104,
      "Ġchá»¯": 1105,
      "ĠÄĳa": 1106,
      "¡ng": 1107,
      "Ġcá»Ńa": 1108,
      "á»Ĺ": 1109,
      "Ġkhoáº£ng": 1110,
      "áº£y": 1111,
      "ĠnháºŃp": 1112,
      "ĠAnh": 1113,
      "Ġbá»ı": 1114,
      "iÃªng": 1115,
      "un": 1116,
      "uyáº¿t": 1117,
      "Ġ9": 1118,
      "Ġquáº£n": 1119,
      "Ġchung": 1120,
      "ĠchÆ¡i": 1121,
      "Ġcá»©u": 1122,
      "ĠbÃ©": 1123,
      "ap": 1124,
      "ĠÄĳá»Ŀi": 1125,
      "eb": 1126,
      "Ġchiáº¿n": 1127,
      "¯u": 1128,
      "ĠdÃłi": 1129,
      "Ġhiá»ĥu": 1130,
      "á»«ng": 1131,
      "Ġgiá»¯a": 1132,
      "ĠtÃªn": 1133,
      "Ġtáº¥t": 1134,
      "Ġtra": 1135,
      "Ġdiá»ħn": 1136,
      "Ġban": 1137,
      "Ġtriá»ĩu": 1138,
      "Ġtiáº¿n": 1139,
      "uyá»ĩt": 1140,
      "Ġphong": 1141,
      "ĠdÆ°á»Ľi": 1142,
      "us": 1143,
      "Ġin": 1144,
      "ĠÄĳá»Ļi": 1145,
      "ĠchÃŃ": 1146,
      "ĠchÃ¢n": 1147,
      "Ġnhiá»ĩm": 1148,
      "ĠquÃ½": 1149,
      "Ġsáº¯c": 1150,
      "Ġw": 1151,
      "áº¿p": 1152,
      "Ġnhu": 1153,
      "Ã¡u": 1154,
      "Ġhá»¯u": 1155,
      "Ġhoa": 1156,
      "Ġgá»įi": 1157,
      "Ġcáº£nh": 1158,
      "Ġchuáº©n": 1159,
      "Ġkháº£": 1160,
      "ĠO": 1161,
      "Ġ19": 1162,
      "Ã¹a": 1163,
      "Ġmá»¥c": 1164,
      "Ġkhai": 1165,
      "ĠkhÃŃ": 1166,
      "ot": 1167,
      "Ġba": 1168,
      "ĠxÃ¡c": 1169,
      "ĠÄĳáº£m": 1170,
      "ĠÃ¡p": 1171,
      "Ġáº¥y": 1172,
      "Ġtrá»±c": 1173,
      "Ġkiá»ĥm": 1174,
      "Ã£i": 1175,
      "Ġná»ķi": 1176,
      "il": 1177,
      "Ġai": 1178,
      "Ġngu": 1179,
      "ĠthÆ°": 1180,
      "Ġlá»±a": 1181,
      "id": 1182,
      "ĠsÃ¡t": 1183,
      "Ġká»¹": 1184,
      "ĠcÃłng": 1185,
      "Ġhá»ıi": 1186,
      "Ġchuyá»ĩn": 1187,
      "Äĳ": 1188,
      "ĠÄĳáº§y": 1189,
      "Ġchá»ĳng": 1190,
      "Ġháº¡n": 1191,
      "ĠcÃ¢y": 1192,
      "ĠcÃ¢u": 1193,
      "ĠVÄĥn": 1194,
      "ĠTrong": 1195,
      "tr": 1196,
      "ĠnghÄ©a": 1197,
      "Ġgáº·p": 1198,
      "Ġtiá»ĩn": 1199,
      "ĠtÆ°Æ¡ng": 1200,
      "Ã³n": 1201,
      "ĠÄĳÃºng": 1202,
      "âĢĿ.": 1203,
      "ur": 1204,
      "ĠkÃ½": 1205,
      "Ġ.": 1206,
      "ĠhÆ°á»Łng": 1207,
      "ag": 1208,
      "Ġmáº¥t": 1209,
      "Ã¢ng": 1210,
      "ĠAn": 1211,
      "Ġyáº¿u": 1212,
      "Ġtranh": 1213,
      "Ġhá»Ĺ": 1214,
      "Ġmáº¡ng": 1215,
      "á»ĵm": 1216,
      "Ġláº¥y": 1217,
      "ĠlÆ°u": 1218,
      "Ġco": 1219,
      "ĠcÃ¡o": 1220,
      "Ġtá»·": 1221,
      "Ġmá»Ł": 1222,
      "Ġthuá»ĳc": 1223,
      "ĠCÃ¡c": 1224,
      "ĠÄĲáº¡i": 1225,
      "Ġsang": 1226,
      "Ġviáº¿t": 1227,
      "ĠcÆ°": 1228,
      "ĠÄĳáº¡t": 1229,
      "ĠrÃµ": 1230,
      "ĠphÃ¹": 1231,
      "ĠBÃ¬nh": 1232,
      "Ġcá»ĳ": 1233,
      "ĠgÃ³": 1234,
      "Ġ12": 1235,
      "ĠÄĳoÃłn": 1236,
      "Ãłu": 1237,
      "Ġtá»ĳi": 1238,
      "©a": 1239,
      "á»ķng": 1240,
      "ĠÃŃt": 1241,
      "Ġchia": 1242,
      "ĠtrÆ°á»Łng": 1243,
      "ed": 1244,
      "Æ°á»£t": 1245,
      "ĠbÃł": 1246,
      "ĠJ": 1247,
      "Ġgá»ĵm": 1248,
      "Ph": 1249,
      "ĠluáºŃt": 1250,
      "Ġminh": 1251,
      "ĠtÆ°á»Łng": 1252,
      "ĠNáº¿u": 1253,
      "ter": 1254,
      "oo": 1255,
      "Ġcáº¡nh": 1256,
      "Ġbá»ĳ": 1257,
      "ĠchÆ°Æ¡ng": 1258,
      "ĠngÃłnh": 1259,
      "Ġmáº«u": 1260,
      "iáº¿m": 1261,
      "ĠMinh": 1262,
      "Ġcá»±c": 1263,
      "Ġrá»Ļng": 1264,
      "ĠÃ¢m": 1265,
      "ĠÄĳÄĥng": 1266,
      "Ġcá»¥": 1267,
      "Ġdung": 1268,
      "áºŃm": 1269,
      "ĠkÃ©": 1270,
      "Ġdá»¥c": 1271,
      "Ġdanh": 1272,
      "ĠhÃ£y": 1273,
      "Ġnghe": 1274,
      "Ìĥ": 1275,
      "Ãºa": 1276,
      "Ġvui": 1277,
      "Ġdi": 1278,
      "Ġnguá»ĵn": 1279,
      "ĠvÃ¹ng": 1280,
      "Ġ|": 1281,
      "Ġf": 1282,
      "Ġgiáº£": 1283,
      "įc": 1284,
      "ĠNgh": 1285,
      "Ġ20": 1286,
      "áº©u": 1287,
      "Ġbiá»ĥu": 1288,
      "ĠÄĳáº¥u": 1289,
      "Ġtháº§n": 1290,
      "Ġkhoa": 1291,
      "ĠÄĳá»Ļc": 1292,
      "ĠkhÃ¡": 1293,
      "Ġtá»ķng": 1294,
      "ĠváºŃn": 1295,
      "ĠdÃ¹": 1296,
      "ĠdÆ°á»¡ng": 1297,
      "ĠÄĲá»©c": 1298,
      "ĠriÃªng": 1299,
      "Ã³m": 1300,
      "op": 1301,
      "Ġtráº£": 1302,
      "ĠbÃ³ng": 1303,
      "Ãłm": 1304,
      "Ġchá»ĭu": 1305,
      "Ãºi": 1306,
      "ĠmÃ´i": 1307,
      "ĠtÃŃn": 1308,
      "one": 1309,
      "ĠphÃŃa": 1310,
      "ĠtoÃ¡n": 1311,
      "įng": 1312,
      "Ġxá»Ń": 1313,
      "ĠTP": 1314,
      "Ġxuá»ĳng": 1315,
      "Ġthoáº¡i": 1316,
      "ĠdÃ²ng": 1317,
      "Æ°Æ¡i": 1318,
      "Ġlá»Ľp": 1319,
      "Ġ:": 1320,
      "Ġtráº¡ng": 1321,
      "ĠÄĳÃ´": 1322,
      "um": 1323,
      "oÃłi": 1324,
      "ĠHá»Ļi": 1325,
      "ĠTuy": 1326,
      "os": 1327,
      "Ġpháº¡m": 1328,
      "ĠNhÃł": 1329,
      "Ġhoáº¡ch": 1330,
      "Ġbay": 1331,
      "Ã¨n": 1332,
      "ĠlÃ¢u": 1333,
      "ine": 1334,
      "á»Ĺi": 1335,
      "ĠmÃ´": 1336,
      "Ġphá»§": 1337,
      "iá»ĩp": 1338,
      "ph": 1339,
      "Ġcháº¯c": 1340,
      "ĠChÃŃnh": 1341,
      "ĠquÃ¢n": 1342,
      "Ġká»ĥ": 1343,
      "Ġkhá»ıe": 1344,
      "Ġbiá»ĥn": 1345,
      "ĠnÃ¢ng": 1346,
      "10": 1347,
      "ĠÄĳÃ¡ng": 1348,
      "ĠdÃłnh": 1349,
      "Ġcuá»ĳi": 1350,
      "Ġxa": 1351,
      "áºµ": 1352,
      "Ġnam": 1353,
      "Ġviá»ĩn": 1354,
      "Ġ15": 1355,
      "Trong": 1356,
      "á»¯a": 1357,
      "Ġdáº¡ng": 1358,
      "Ġxin": 1359,
      "Ġgh": 1360,
      "ĠThanh": 1361,
      "«ng": 1362,
      "....": 1363,
      "ĠÄĳau": 1364,
      "áº¡p": 1365,
      "Ġnghá»ĭ": 1366,
      "Ġlá»ĩ": 1367,
      "Ġuá»ĳng": 1368,
      "ĠÆ°u": 1369,
      "ĠÄĳÃ¢u": 1370,
      "á»³": 1371,
      "ĠÃ¡o": 1372,
      "Ġthiá»ĩn": 1373,
      "ĳng": 1374,
      "Kh": 1375,
      "Ġkháº©u": 1376,
      "Ġtháº¥t": 1377,
      "ĠÃŃch": 1378,
      "Ġnáº±m": 1379,
      "áº©y": 1380,
      "ĠÄĳoáº¡n": 1381,
      "Ġ2018": 1382,
      "ĠvÃłng": 1383,
      "ĠsÆ°": 1384,
      "ĠÄĲÃ´ng": 1385,
      "á»§y": 1386,
      "Ġráº»": 1387,
      "ĠphÃ©p": 1388,
      "ĠÄĳÃ¡": 1389,
      "ĠsÆ¡": 1390,
      "ĠhÃ²a": 1391,
      "Ġvá»ĳn": 1392,
      "ĠNhÆ°ng": 1393,
      "Ġchá»¯a": 1394,
      "ND": 1395,
      "áº§ng": 1396,
      "ĠNháºŃt": 1397,
      "Ġhuyá»ĩn": 1398,
      "ĠmÃ³n": 1399,
      "Æ°á»Ľi": 1400,
      "ĠCÃ³": 1401,
      "Ã¹i": 1402,
      "Ġnhiá»ĩt": 1403,
      "ĠtráºŃn": 1404,
      "Ġphim": 1405,
      "ĠgÃ¡i": 1406,
      "ĠbÆ°á»Ľc": 1407,
      "ĠkÃŃch": 1408,
      "Ġgiá»ĳng": 1409,
      "á»ĭp": 1410,
      "Ã£n": 1411,
      "ĠÄĳÃ´i": 1412,
      "lo": 1413,
      "ĠBáº¯c": 1414,
      "ĠBáº¡n": 1415,
      "Ġtáº£i": 1416,
      "ĠmÃ´n": 1417,
      "Ġlao": 1418,
      "Ġweb": 1419,
      "ĠMá»Ļt": 1420,
      "ĠchÃº": 1421,
      "á»Ńi": 1422,
      "ĠthuÃª": 1423,
      "ĠtrÃ²": 1424,
      "NG": 1425,
      "ĠThÃłnh": 1426,
      "ĠÄĳÃłn": 1427,
      "ĠKhi": 1428,
      "ĠgiÃ¡c": 1429,
      "Ġtá»ĭ": 1430,
      "Ġcá»Ļng": 1431,
      "Ġtráº¯ng": 1432,
      "Ġtuyá»ĩt": 1433,
      "ĠnghiÃªn": 1434,
      "ĠvÃ²ng": 1435,
      "Ġthiáº¿u": 1436,
      "ĠthÆ¡": 1437,
      "uÃ´i": 1438,
      "ĠSau": 1439,
      "Ġxanh": 1440,
      "Ġsáº»": 1441,
      "ĠhÃºt": 1442,
      "ĠÄĳÃ³ng": 1443,
      "Ġ30": 1444,
      "Ġ/": 1445,
      "ĠHá»ĵ": 1446,
      "ĠÄĳÃ´ng": 1447,
      "uÃ¢n": 1448,
      "ĠsÃ¢n": 1449,
      "âĢĿ,": 1450,
      "ĠtrÃ¡i": 1451,
      "11": 1452,
      "Ġhá»ĵi": 1453,
      "ĠÄĳÃ¡p": 1454,
      "Ã£y": 1455,
      "ĠnhÃ©": 1456,
      "Ġngá»§": 1457,
      "ĠluáºŃn": 1458,
      "ĠbÃ¡c": 1459,
      "ĠvÃłi": 1460,
      "Theo": 1461,
      "Ġtrá»Ŀi": 1462,
      "Ġná»ģn": 1463,
      "Ġnhá»Ľ": 1464,
      "ĠhÃ´m": 1465,
      "Ġo": 1466,
      "Ġngoáº¡i": 1467,
      "iá»ģm": 1468,
      "ĠdÃłng": 1469,
      "Ġkhoáº£n": 1470,
      "Ġgiáº£n": 1471,
      "Ġkhá»ıi": 1472,
      "Ġphá»ĳi": 1473,
      "Ġtáº§ng": 1474,
      "ĠVá»Ľi": 1475,
      "ĠTÃ¢y": 1476,
      "ģm": 1477,
      "ĠphÃ¡": 1478,
      "á»ĳt": 1479,
      "Ġváº»": 1480,
      "ĠKhÃ´ng": 1481,
      "Ġláº¡nh": 1482,
      "ut": 1483,
      "Ġá»": 1484,
      "com": 1485,
      "Ġtá»©c": 1486,
      "Ġbá»ķ": 1487,
      "Ġ200": 1488,
      "Ġgá»Ńi": 1489,
      "Ġcháº¿t": 1490,
      "CM": 1491,
      "iv": 1492,
      "ion": 1493,
      "Ġcháº³ng": 1494,
      "Ķng": 1495,
      "20": 1496,
      "Ġnháº±m": 1497,
      "re": 1498,
      "ĠBan": 1499,
      "ĠÄĳá»įc": 1500,
      "Ġkiáº¿m": 1501,
      "Ġcháº¡y": 1502,
      "ĠsÃ¢u": 1503,
      "ĠÄĲiá»ģu": 1504,
      "ĵng": 1505,
      "ĠthuáºŃn": 1506,
      "Ġ11": 1507,
      "ĠNhá»¯ng": 1508,
      "ĠhÃ£ng": 1509,
      "ĠkÃŃnh": 1510,
      "ĠmÃ¹a": 1511,
      "Ġnháº¹": 1512,
      "ĠkhÄĥn": 1513,
      "ĠNgÆ°á»Ŀi": 1514,
      "Ġghi": 1515,
      "ĠgÃ³p": 1516,
      "ĠlÃ£nh": 1517,
      "ĠIn": 1518,
      "ĠÃģ": 1519,
      "ĠÄĳá»©ng": 1520,
      "ite": 1521,
      "ĠxÃ©t": 1522,
      "2018": 1523,
      "ĠDo": 1524,
      "ĠÃ´": 1525,
      "ĠphÃºt": 1526,
      "Ġmáº¡i": 1527,
      "Ġsuáº¥t": 1528,
      "ĠLong": 1529,
      "ĠtrÃ¡ch": 1530,
      "ĠnhÃ³m": 1531,
      "ĠÄĲÃ¢y": 1532,
      "Ġmá»ģm": 1533,
      "âĢľ": 1534,
      "ĠcÃ¢n": 1535,
      "ĠnÃłng": 1536,
      "ĠThá»ĭ": 1537,
      "Ġchiá»ģu": 1538,
      "ĠThu": 1539,
      "Ġsá»Ńa": 1540,
      "ĠHáº£i": 1541,
      "Ġtuáº§n": 1542,
      "ĠHoÃłng": 1543,
      "--": 1544,
      "ent": 1545,
      "Ġdáº§u": 1546,
      "Ġvá»įng": 1547,
      "iá»ħ": 1548,
      "Ġnháº¡c": 1549,
      "Ġgiáº¥y": 1550,
      "Ġla": 1551,
      "Ġmong": 1552,
      "Ġsáº¡ch": 1553,
      "and": 1554,
      "ĠDÆ°Æ¡ng": 1555,
      "á»įn": 1556,
      "ĠHoa": 1557,
      "ĠcáºŃp": 1558,
      "ĠÄĳem": 1559,
      "ĠSÆ¡n": 1560,
      "ig": 1561,
      "Ġchá»ĵng": 1562,
      "Ġcáº£i": 1563,
      "ĠTÃ´i": 1564,
      "ĠTá»ķng": 1565,
      "ĠThÃ¡i": 1566,
      "ĠVÃ¬": 1567,
      "ĠháºŃu": 1568,
      "Ġtá»ĭch": 1569,
      "Ġlinh": 1570,
      "ĠChá»§": 1571,
      "Ġmá»¹": 1572,
      "up": 1573,
      "ĠÄĳÃło": 1574,
      "Ġtháº©m": 1575,
      "Ġtuyá»ĥn": 1576,
      "ĠtrÃ¡nh": 1577,
      "Ġlá»ħ": 1578,
      "ĠlÄ©nh": 1579,
      "Ġmiá»ħn": 1580,
      "Ġtuyáº¿n": 1581,
      "ĠPháºŃt": 1582,
      "Ġchá»Ĺ": 1583,
      "ĠthiÃªn": 1584,
      "Ġháº¥p": 1585,
      "ĠÄĲá»ĵng": 1586,
      "Ġvá»£": 1587,
      "ĠTrÆ°á»Ŀng": 1588,
      "Ġchá»īnh": 1589,
      "ame": 1590,
      "ĠTo": 1591,
      "ĠChÃºa": 1592,
      "Ġ100": 1593,
      "Ġnghá»ģ": 1594,
      "Ġi": 1595,
      "ĠmÃłn": 1596,
      "Ġcam": 1597,
      "Ã³i": 1598,
      "Ġnguy": 1599,
      "Ġtháº¥p": 1600,
      "âĢĵ": 1601,
      "ĠchÃ³ng": 1602,
      "ĠkÃ©o": 1603,
      "ĠquáºŃn": 1604,
      "ĠVi": 1605,
      "ĠÃ¡nh": 1606,
      "Ġpháº£n": 1607,
      "Ġduy": 1608,
      "ĠmÃ¡u": 1609,
      "Ġsá»£": 1610,
      "ĠtáºŃn": 1611,
      "ĠnÃ³ng": 1612,
      "ĠkhÃ³a": 1613,
      "Ġháº¡i": 1614,
      "Ġná»ĳi": 1615,
      "ĠmÃ¡i": 1616,
      "ĠdÃ¢y": 1617,
      "uá»ĳt": 1618,
      "á»Ļn": 1619,
      "ĠchÃºt": 1620,
      "Ġnghá»ī": 1621,
      "Ġá»ķ": 1622,
      "á»¡": 1623,
      "ĠUS": 1624,
      "ĠngÃ¢n": 1625,
      "Vá»Ľi": 1626,
      "19": 1627,
      "Ġhiá»ĥm": 1628,
      "Ġxáº£y": 1629,
      "ec": 1630,
      "ĠhÆ¡i": 1631,
      "ĠâĢ¢": 1632,
      "ĠkhÃ¡m": 1633,
      "ĠÄĳáº£o": 1634,
      "ĠxuyÃªn": 1635,
      "ak": 1636,
      "Ġquanh": 1637,
      "ĠchÄĥm": 1638,
      "Ġthá»§y": 1639,
      "ĠPhÃ¡p": 1640,
      "Ġháº¡": 1641,
      "ĠkÃª": 1642,
      "Ġtai": 1643,
      "ĠLu": 1644,
      "ĠthÃ¡i": 1645,
      "ĠtÃ¹": 1646,
      "ĠBáº£n": 1647,
      "Ġ2017": 1648,
      "ĠhÃ¡t": 1649,
      "Ġcháº¯n": 1650,
      "Ġtháº¯ng": 1651,
      "ĠTH": 1652,
      "ul": 1653,
      "Ġ...": 1654,
      "Ġkháº£o": 1655,
      "Ġ18": 1656,
      "Ã¨o": 1657,
      "Ġa": 1658,
      "Ġbuá»ķi": 1659,
      "ĠtÆ°á»Ľng": 1660,
      "Ġtráº£i": 1661,
      "ĠtÃ´": 1662,
      "ĠÄĳá»ı": 1663,
      "Ġniá»ĩm": 1664,
      "ĠThiÃªn": 1665,
      "CÃ¡c": 1666,
      "ho": 1667,
      "ĠVÃł": 1668,
      "Ġhuy": 1669,
      "ĠthÃ´i": 1670,
      "Ã¨m": 1671,
      "ĠÄĳÃªm": 1672,
      "12": 1673,
      "ĠxÃºc": 1674,
      "ip": 1675,
      "Ġkiá»ĥu": 1676,
      "ĠcÆ°á»Ŀng": 1677,
      "Ġcháº¥p": 1678,
      "Ġmáº¯c": 1679,
      "line": 1680,
      "Ġnhá»Ŀ": 1681,
      "Ġthá»Ń": 1682,
      "ĠnÃ´ng": 1683,
      "Ġmay": 1684,
      "á»Ľm": 1685,
      "ĠnháºŃt": 1686,
      "ĠtrÃ¬": 1687,
      "Ġkhá»Łi": 1688,
      "áº·n": 1689,
      "ĠPhÃº": 1690,
      "50": 1691,
      "Ġdáº¥u": 1692,
      "ĠTráº§n": 1693,
      "Ġuy": 1694,
      "ĠthÃº": 1695,
      "ĠmÃ£": 1696,
      "ĠngÃ´i": 1697,
      "ĠvÆ°á»£t": 1698,
      "Ġvai": 1699,
      "Ġká»·": 1700,
      "á»«a": 1701,
      "ew": 1702,
      "Ġláº¡c": 1703,
      "á»·": 1704,
      "Ġtiá»ĥu": 1705,
      "Ġdáº¡y": 1706,
      "Ġbáº¿p": 1707,
      "ir": 1708,
      "Ã£o": 1709,
      "Ġtrai": 1710,
      "Ġbá»¥": 1711,
      "Má»Ļt": 1712,
      "Ġchá»©a": 1713,
      "Ġngá»ĵi": 1714,
      "ob": 1715,
      "oa": 1716,
      "ĠmáºŃt": 1717,
      "ĠsiÃªu": 1718,
      "Ġtháº£o": 1719,
      "Ġgá»Ĺ": 1720,
      "Náº¿u": 1721,
      "Ġsuy": 1722,
      "ĠbÃ¡nh": 1723,
      "ĠÃĤ": 1724,
      "Ġmáº·c": 1725,
      "Ġ09": 1726,
      "ĠrÄĥng": 1727,
      "Ġsá»Ľm": 1728,
      "ĠphiÃªn": 1729,
      "Ġháº¯n": 1730,
      "ĠHÃłn": 1731,
      "ıa": 1732,
      "ĠlÃ¡": 1733,
      "NH": 1734,
      "Ġkháº¯c": 1735,
      "ĠÄĳáº©y": 1736,
      "Ġmiá»ģn": 1737,
      "ĠThá»§": 1738,
      "ĠthÆ°á»Łng": 1739,
      "ub": 1740,
      "ĠnuÃ´i": 1741,
      "ĠÄĳÃ¨n": 1742,
      "Ġsai": 1743,
      "ĠLÃª": 1744,
      "Ġma": 1745,
      "ĠChÃŃ": 1746,
      "ĠÄĳÃŃch": 1747,
      "ĠChÃºng": 1748,
      "Ġtá»ĳc": 1749,
      "áºµn": 1750,
      "Ġáº¥n": 1751,
      "Ġkia": 1752,
      "Ġquáº§n": 1753,
      "iáº¿p": 1754,
      "Ġnáº·ng": 1755,
      "Ġthuáº¿": 1756,
      "Ġquen": 1757,
      "Ġchá»¥": 1758,
      "art": 1759,
      "ĠChÃ¢u": 1760,
      "ex": 1761,
      "Ġphá»ķ": 1762,
      "iá»ħm": 1763,
      "Ġva": 1764,
      "Ġ16": 1765,
      "Ġliá»ģn": 1766,
      "Ġnghi": 1767,
      "Ġlá»Ļ": 1768,
      "Ġ13": 1769,
      "Å©i": 1770,
      "ĠNgoÃłi": 1771,
      "Ġngon": 1772,
      "Ã²i": 1773,
      "Ġcáº¥u": 1774,
      "Ġláº½": 1775,
      "TT": 1776,
      "ĠcÅ©": 1777,
      "Ġcha": 1778,
      "ĠLiÃªn": 1779,
      "Ġquay": 1780,
      "ıng": 1781,
      "ĠniÃªn": 1782,
      "ĠphÃª": 1783,
      "Ãµi": 1784,
      "Ġgiai": 1785,
      "Ġtáº¥n": 1786,
      "Ġ14": 1787,
      "ĠhÆ°Æ¡ng": 1788,
      "ĠTá»«": 1789,
      "Sau": 1790,
      "ĠTháº¿": 1791,
      "ĠcÃ¡n": 1792,
      "Ġ24": 1793,
      "Ġpha": 1794,
      "ĠtÃ³c": 1795,
      "Ġsung": 1796,
      "BND": 1797,
      "ĠsÃ³c": 1798,
      "site": 1799,
      "ĠcÆ°á»Ŀi": 1800,
      "ĠngÄĥn": 1801,
      "iáº¿ng": 1802,
      "av": 1803,
      "ĠgiÃ¡m": 1804,
      "Ġsáºµn": 1805,
      "ĠÄĲáº£ng": 1806,
      "ĠThÃ´ng": 1807,
      "ĠviÃªm": 1808,
      "Ġluyá»ĩn": 1809,
      "á»§ng": 1810,
      "vn": 1811,
      "ĠTheo": 1812,
      "ĠquÃ¡n": 1813,
      "ĠÄĳen": 1814,
      "ĠTÃ¢n": 1815,
      "á»ĭnh": 1816,
      "kh": 1817,
      "HCM": 1818,
      "ĠthÄĥm": 1819,
      "oc": 1820,
      "Ġtá»Ļi": 1821,
      "ĠthÃºc": 1822,
      "Ġthao": 1823,
      "Ġthá»ĭt": 1824,
      "Ġ[": 1825,
      "ĠdÃ¡ng": 1826,
      "Ġthiá»ĩu": 1827,
      "ĠUSD": 1828,
      "Ġå": 1829,
      "Ġngá»¯": 1830,
      "Ġlá»Ĺi": 1831,
      "ĠtÆ°Æ¡i": 1832,
      "ĠhÃłi": 1833,
      "Ġsá»¯a": 1834,
      "Ġá»ķn": 1835,
      "Khi": 1836,
      "Ġmá»ĩ": 1837,
      "Ġthai": 1838,
      "Ġtáº·ng": 1839,
      "Ġchá»©": 1840,
      "Ġmáº¥y": 1841,
      "ĠÄĲÃł": 1842,
      "\".": 1843,
      "ĠtrÃºc": 1844,
      "ĠbáºŃt": 1845,
      "Ġ50": 1846,
      "od": 1847,
      "ab": 1848,
      "Báº¡n": 1849,
      "te": 1850,
      "Ġnáº¡n": 1851,
      "ĠHÃ²a": 1852,
      "ĠÄĳá»ĳc": 1853,
      "Ġxáº¿p": 1854,
      "Ġtá»Ļc": 1855,
      "ook": 1856,
      "ark": 1857,
      "Ġcáº¯t": 1858,
      "ĠQuáº£ng": 1859,
      "30": 1860,
      "Ġgame": 1861,
      "ĠLan": 1862,
      "Ġbáº£ng": 1863,
      "Ġquáº£ng": 1864,
      "ĠXuÃ¢n": 1865,
      "Ġtim": 1866,
      "Ġláº¯p": 1867,
      "ĠTu": 1868,
      "ĠBáº£o": 1869,
      "ard": 1870,
      "Ġkim": 1871,
      "ĠGiang": 1872,
      "ĠPhÃ²ng": 1873,
      "Ġtáº§m": 1874,
      "ĠÄĲá»ĥ": 1875,
      "á»£i": 1876,
      "Ġbá»ģn": 1877,
      "ĠNgá»įc": 1878,
      "ĠsÃ´ng": 1879,
      "ĠNguyÃªn": 1880,
      "Ġtrao": 1881,
      "Ġmá»ĳi": 1882,
      "Ġngá»Ŀ": 1883,
      "Ġháº¡nh": 1884,
      "ĠGiÃ¡o": 1885,
      "ĠbÃły": 1886,
      "Ġgá»ĳc": 1887,
      "Ġtuy": 1888,
      "Ġtháº³ng": 1889,
      "ĠphÃºc": 1890,
      "ĠÃĶng": 1891,
      "Ġáº": 1892,
      "Ġcoi": 1893,
      "ess": 1894,
      "Ġsuá»ĳt": 1895,
      "ĠyÃªn": 1896,
      "Ġcá»Ń": 1897,
      "ĠmÃ¡t": 1898,
      "ĠchÃ¢u": 1899,
      "Ġdáº§n": 1900,
      "ĠcÃ¡nh": 1901,
      "ĠngÅ©": 1902,
      "Ġchiáº¿u": 1903,
      "áº¹n": 1904,
      "ore": 1905,
      "Ġmáº¡ch": 1906,
      "Ġháº¡t": 1907,
      "Ġnhiá»ħm": 1908,
      "ĠtÃłu": 1909,
      "Ġbá»©c": 1910,
      "Ġkiá»ĩm": 1911,
      "Ġkhá»ĳi": 1912,
      "Ġdá»¯": 1913,
      "Ġmu": 1914,
      "ĠnghiÃªm": 1915,
      "ĠkhÃ´": 1916,
      "ĠSá»Ł": 1917,
      "ĠÄĳÃ³n": 1918,
      "Ġthá»¥": 1919,
      "ie": 1920,
      "Ġsim": 1921,
      "Ġcáº§m": 1922,
      "if": 1923,
      "oÃłn": 1924,
      "Ã³t": 1925,
      "ĠKá»³": 1926,
      "Nhá»¯ng": 1927,
      "Ġvá»¯": 1928,
      "ĠtÃ´n": 1929,
      "Ġláº¡": 1930,
      "ĠâĢ¦": 1931,
      "ĠGia": 1932,
      "ĠsoÃ¡t": 1933,
      "ĠKinh": 1934,
      "ĠCon": 1935,
      "ĠpháºŃn": 1936,
      "ĠÄĳáº³ng": 1937,
      "Ġchá»Ŀ": 1938,
      "oi": 1939,
      "Ġkáº»": 1940,
      "ĠmÆ¡": 1941,
      "Ġ&": 1942,
      "Æ°á»Ŀn": 1943,
      "ĠHÃ£y": 1944,
      "Ġ25": 1945,
      "ail": 1946,
      "ĠnÃ©t": 1947,
      "ĠÂ": 1948,
      "âĢĻ": 1949,
      "ĠUBND": 1950,
      "iá»ĩng": 1951,
      "Ġkhá»ķ": 1952,
      "Gi": 1953,
      "Ġ17": 1954,
      "Ġwebsite": 1955,
      "ĠlÆ°Æ¡ng": 1956,
      "Ġhá»ĵng": 1957,
      "ĠLo": 1958,
      "Ġlai": 1959,
      "Ġsáº¡n": 1960,
      "Ġgáº¯n": 1961,
      "Ġxong": 1962,
      "Æ°á»£u": 1963,
      "Ġsáº¯p": 1964,
      "Ġhuyáº¿t": 1965,
      "ĠbÃło": 1966,
      "net": 1967,
      "ĠcÃł": 1968,
      "Ġxu": 1969,
      "ĠKim": 1970,
      "Ġ+": 1971,
      "ÄĲá»ĥ": 1972,
      "ity": 1973,
      "ĠÆ¡n": 1974,
      "Ġngáº¯n": 1975,
      "Ġbáº§u": 1976,
      "Ġmiá»ĩng": 1977,
      "CÃ³": 1978,
      "ĠbÃŃ": 1979,
      "ĠQuÃ½": 1980,
      "Ġxo": 1981,
      "ĠHu": 1982,
      "ĠkÃ©m": 1983,
      "ĠChá»ī": 1984,
      "Ġtá»ĵ": 1985,
      "ĠViet": 1986,
      "Ġvá»¯ng": 1987,
      "KhÃ´ng": 1988,
      "PT": 1989,
      "Ġ2016": 1990,
      "ĠNinh": 1991,
      "Ġvá»Ŀi": 1992,
      "st": 1993,
      "ĠNga": 1994,
      "Ġcuá»ĳn": 1995,
      "TÃ´i": 1996,
      "ĠtÃ¹y": 1997,
      "ĠQuáºŃn": 1998,
      "ĠgiÃ³": 1999,
      "ĠPhÆ°Æ¡ng": 2000,
      "est": 2001,
      "ĠkÃ¨m": 2002,
      "ĠmÃ£i": 2003,
      "Ġtrá»ĵng": 2004,
      "Ġtáº¯c": 2005,
      "ĠLuáºŃt": 2006,
      "ĠtÃºi": 2007,
      "ĠhÃ´n": 2008,
      "Æ°á»¡ng": 2009,
      "ĠthÆ°á»Ľc": 2010,
      "ĠPhÃ³": 2011,
      "200": 2012,
      "Ġtá»§": 2013,
      "24": 2014,
      "Ġxung": 2015,
      "ĠlÃłn": 2016,
      "ax": 2017,
      "Ġtháº§y": 2018,
      "\",": 2019,
      "Ġgháº¿": 2020,
      "ĠcáºŃu": 2021,
      "ĠmÅ©i": 2022,
      "ĠbiÃªn": 2023,
      "Ġdá»ĭ": 2024,
      "ĠtÃ¡i": 2025,
      "Ġchuyáº¿n": 2026,
      "Ġthuyáº¿t": 2027,
      "ĠTrang": 2028,
      "Ġháº¡ng": 2029,
      "ĠdÆ°Æ¡ng": 2030,
      "Ġáº¥m": 2031,
      "ĠnÃºi": 2032,
      "ĠlÃłnh": 2033,
      "ĠQuang": 2034,
      "Ġthá»«a": 2035,
      "ack": 2036,
      "ĠgÃ³i": 2037,
      "Ġthoáº£i": 2038,
      "Ġkhuyáº¿n": 2039,
      "ĠÄĳá»«ng": 2040,
      "Ġrá»Ńa": 2041,
      "Ġláº¯ng": 2042,
      "ĠthÃŃ": 2043,
      "Ġniá»ģm": 2044,
      "Ġchiáº¿m": 2045,
      "ow": 2046,
      "Ġtruy": 2047,
      "ĠÄĳá»©c": 2048,
      "ĠrÃłng": 2049,
      "ĠZ": 2050,
      "Ġtáº¥m": 2051,
      "ĠÃĤu": 2052,
      ".âĢĿ": 2053,
      "ĠvÃ©": 2054,
      "ĠchÃ¡y": 2055,
      "ĠmÃª": 2056,
      "Ġgiáº£ng": 2057,
      "Ġá»§y": 2058,
      "ĠrÆ°á»£u": 2059,
      "ov": 2060,
      "ĠCao": 2061,
      "ĠÄĳÃ¡o": 2062,
      "ĠsÃłn": 2063,
      "Ġháº§u": 2064,
      "era": 2065,
      "ĠhoÃ¡": 2066,
      "ĠthoÃ¡t": 2067,
      "áºµng": 2068,
      "ĠHá»ĵng": 2069,
      "á»¥n": 2070,
      "ĠÆ°á»Ľc": 2071,
      "áºŃc": 2072,
      "ĠtuyÃªn": 2073,
      "2017": 2074,
      "á»įt": 2075,
      "Ġnáº¯m": 2076,
      "Ġáº©m": 2077,
      "Ġláº¯m": 2078,
      "ĠLinh": 2079,
      "NgÃły": 2080,
      "Ġcá»©ng": 2081,
      "Ġtháº»": 2082,
      "ĠVÅ©": 2083,
      "ile": 2084,
      "ers": 2085,
      "Qu": 2086,
      "ĠBa": 2087,
      "ik": 2088,
      "Ġlá»Ńa": 2089,
      "ĠmÆ°a": 2090,
      "ĠdÃły": 2091,
      "Ġxáº¥u": 2092,
      "Ãģ": 2093,
      "Ġbuá»Ļc": 2094,
      "Ġnháº¯c": 2095,
      "ĠtháºŃm": 2096,
      "az": 2097,
      "Ġæ": 2098,
      "Ġbáº¡c": 2099,
      "ep": 2100,
      "CÃ´ng": 2101,
      "ĠPhong": 2102,
      "Ġtá»ĵn": 2103,
      "ĠLÃ¢m": 2104,
      "ĠcáºŃn": 2105,
      "ist": 2106,
      "Ġhá»įp": 2107,
      "ĠquÃł": 2108,
      "NgoÃłi": 2109,
      "ĠTÃłi": 2110,
      "ĠbáºŃc": 2111,
      "ĠlÃ¡i": 2112,
      "ĠgÃł": 2113,
      "Ġkháº³ng": 2114,
      "ĠtÃ²a": 2115,
      "Ä©a": 2116,
      "Ġphi": 2117,
      "Ġchá»£": 2118,
      "Ġon": 2119,
      "ĠViá»ĩc": 2120,
      "Ġdá»±a": 2121,
      "ort": 2122,
      "ĠtÆ°á»Ŀng": 2123,
      "ĠChi": 2124,
      "á»Ļp": 2125,
      "ĠNhÃ¢n": 2126,
      "Ġly": 2127,
      "ĠHiá»ĩn": 2128,
      "ĠtháºŃn": 2129,
      "ĠkhÃºc": 2130,
      "ĠlÃłng": 2131,
      "ĠvÅ©": 2132,
      "Ġnáº¯ng": 2133,
      "ĠtrÃ¹ng": 2134,
      "ĠgiÃłu": 2135,
      "Ġmáº½": 2136,
      "ill": 2137,
      "Ġrau": 2138,
      "Ġcan": 2139,
      "ĠlÆ°á»£c": 2140,
      "ĠlÃ´ng": 2141,
      "ĠÄĳáº¥y": 2142,
      "Æ¯": 2143,
      "Ġbiá»ĩn": 2144,
      "Ġha": 2145,
      "ĠsÃ³ng": 2146,
      "Ġninh": 2147,
      "ĠGiá»": 2148,
      "Ġnha": 2149,
      "ĠphÃ³ng": 2150,
      "Ġnguyá»ĩn": 2151,
      "ĠchÃ¡u": 2152,
      "ĠMÃ¡y": 2153,
      "Ġtrá»«": 2154,
      "ass": 2155,
      "ĠmÃ¹i": 2156,
      "Ġchá»¥p": 2157,
      "ĠÄĳá»Ļt": 2158,
      "ĠÄĲÃ³": 2159,
      "ĠÆ°Æ¡ng": 2160,
      "Ġnháº¥n": 2161,
      "ĠVN": 2162,
      "Ġtri": 2163,
      "VN": 2164,
      "ĠCho": 2165,
      "amin": 2166,
      "Ã©o": 2167,
      "Ġtáº¯m": 2168,
      "ĠsÆ¡n": 2169,
      "ĠNgÃły": 2170,
      "ĠNhÆ°": 2171,
      "Ġtá»Ŀ": 2172,
      "ĠGiÃ¡": 2173,
      "á»©t": 2174,
      "ĠnhiÃªu": 2175,
      "ĠKhu": 2176,
      "ĠÄĳÆ°Æ¡ng": 2177,
      "Ġru": 2178,
      "ĠEm": 2179,
      "ĠNáºµng": 2180,
      "ĠTáº¡i": 2181,
      "Ġká»ĭp": 2182,
      "áº³n": 2183,
      "Ġháº£o": 2184,
      "Ġvay": 2185,
      "Ġngáº¡i": 2186,
      "ord": 2187,
      "ĠÄĳoÃ¡n": 2188,
      "Ġsong": 2189,
      "ĠDu": 2190,
      "ĠTá»ķ": 2191,
      "Ġlá»įc": 2192,
      "Ġmá»Ŀi": 2193,
      "ev": 2194,
      "Ġtrá»¥": 2195,
      ",âĢ¦": 2196,
      "ĠgÃ³c": 2197,
      "Ġliá»ĩt": 2198,
      "Ġtá»ı": 2199,
      "ĠLÃ½": 2200,
      "ain": 2201,
      "ÃĢ": 2202,
      "ĠtrÆ°ng": 2203,
      "ĠPháº¡m": 2204,
      "á»īnh": 2205,
      "Ġnáº¥u": 2206,
      "Ġ40": 2207,
      "Ġkháº¯p": 2208,
      "io": 2209,
      "88": 2210,
      "Ġtá»ī": 2211,
      "ff": 2212,
      "ĠÄĲoÃłn": 2213,
      "ĠrÃºt": 2214,
      "ĠSt": 2215,
      "25": 2216,
      "Ġrá»«ng": 2217,
      "ĠÄĳá»¡": 2218,
      "Ġphiáº¿u": 2219,
      "Ġgá»įn": 2220,
      "ĠSÃłi": 2221,
      "ĠhoÃłng": 2222,
      "ĠthÃ¡c": 2223,
      "ĠTáºŃp": 2224,
      "ĠtrÄĥm": 2225,
      "Ġbá»Ļt": 2226,
      "Ġsá»ķ": 2227,
      "co": 2228,
      "Ġhu": 2229,
      "Ġhá»įa": 2230,
      "Ġung": 2231,
      "ĠNghá»ĭ": 2232,
      "ÄĲT": 2233,
      "ĠGiÃ¡m": 2234,
      "ĠThÆ°Æ¡ng": 2235,
      "á»ĭa": 2236,
      "15": 2237,
      "ĠkhuÃ´n": 2238,
      "ox": 2239,
      "á»Ľt": 2240,
      "Ġu": 2241,
      "Ġsá»©": 2242,
      "60": 2243,
      "Ġdá»ĭp": 2244,
      "ĠÄĳÃª": 2245,
      "Ġváº¿t": 2246,
      "Ġgáº¯ng": 2247,
      "ĠÄĳá»©a": 2248,
      "Ġcháº·t": 2249,
      "ĠdÃµi": 2250,
      "Ġláº«n": 2251,
      "Ġmá»¥n": 2252,
      "Ġháº£i": 2253,
      "ĠkhÃ¡ng": 2254,
      "ĠsÃłng": 2255,
      "Ġnhá»±a": 2256,
      "ou": 2257,
      "Ġkhiá»ĥn": 2258,
      "ĠÄĲáº·c": 2259,
      "ĠquÃªn": 2260,
      "TC": 2261,
      "ly": 2262,
      "ĠrÆ¡i": 2263,
      "Ġá»ĳng": 2264,
      "ick": 2265,
      "age": 2266,
      "ĠDá»±": 2267,
      "Ġ2015": 2268,
      "Ġgáº¥p": 2269,
      "Ġtáº¡p": 2270,
      "Ġcá»¥c": 2271,
      "ĠYÃªn": 2272,
      "ĠTÆ°": 2273,
      "Ġxá»©": 2274,
      "ĠHá»į": 2275,
      "ĠNha": 2276,
      "Ġháº³n": 2277,
      "ĠSh": 2278,
      "¦y": 2279,
      "ĠkÃ¬": 2280,
      "Tá»«": 2281,
      "ĠngÃ´n": 2282,
      "ĠngÆ°á»£c": 2283,
      "ĠchÃłng": 2284,
      "Ġhá»Ļp": 2285,
      "tt": 2286,
      "ate": 2287,
      "ĠÄĲiá»ĩn": 2288,
      "ĠngÆ°Æ¡i": 2289,
      "ĠÄĳÃ£i": 2290,
      "Ġpháº¡t": 2291,
      "ĠbÃ¨": 2292,
      "Tuy": 2293,
      "ĠdÆ°": 2294,
      "Ġkhung": 2295,
      "Phone": 2296,
      "ĠBÃªn": 2297,
      "Ġbuá»ĵn": 2298,
      "ĠcÆ°á»Ľi": 2299,
      "ĠvÆ°á»Ŀn": 2300,
      "23": 2301,
      "Ġtháº£i": 2302,
      "áº¥c": 2303,
      "ĠVin": 2304,
      "Ġtruyá»ĩn": 2305,
      "ĠlÆ°ng": 2306,
      "Ġbá»ģ": 2307,
      "Ġhá»ģ": 2308,
      "ĠBÃł": 2309,
      "ĠThÃ¡nh": 2310,
      "ĠGÃ²n": 2311,
      "Ġbá»¯a": 2312,
      "Ã©n": 2313,
      "ĠHá»įc": 2314,
      "ce": 2315,
      "ĉĊ": 2316,
      "ĠNÄĥm": 2317,
      "ĠthÃ´n": 2318,
      "ĠxÆ°Æ¡ng": 2319,
      "Ġbá»¥ng": 2320,
      "Ġcháº£y": 2321,
      "Ġsu": 2322,
      "Hiá»ĩn": 2323,
      "ĠCÃ´": 2324,
      "ĠÄĲÃ¬nh": 2325,
      "á»Ľp": 2326,
      "Ġ21": 2327,
      "Æ¡m": 2328,
      "Ġdinh": 2329,
      "ĠVáºŃy": 2330,
      "Ġtrá»©ng": 2331,
      "Ġsa": 2332,
      "Ġthá»Ŀ": 2333,
      "ĠSáº£n": 2334,
      "Ġloáº¡t": 2335,
      "ĠHÆ°ng": 2336,
      "ĠthÆ¡m": 2337,
      "Ġá»¦y": 2338,
      "ĠÄĳá»£i": 2339,
      "ĠcháºŃm": 2340,
      "ra": 2341,
      "cm": 2342,
      "Ġ22": 2343,
      "ĠNÃ³": 2344,
      "Ġthá»ıa": 2345,
      "Ġtáº¡m": 2346,
      "ĠCá»Ļng": 2347,
      "ĠMai": 2348,
      "ĠÄĳÃ¡m": 2349,
      "Ġgan": 2350,
      "ud": 2351,
      "Ġngang": 2352,
      "Ġmá»«ng": 2353,
      "ĠKhoa": 2354,
      "ĠCÃ²n": 2355,
      "ĠhÃłm": 2356,
      "ĠPhÃ¡t": 2357,
      "Ġrá»ĳi": 2358,
      "ĠÄĳÃ²i": 2359,
      "Ġquang": 2360,
      "ĠlÃ£o": 2361,
      "ĠChÆ°Æ¡ng": 2362,
      "Ġ01": 2363,
      "Ġhy": 2364,
      "ĠquÃª": 2365,
      "gi": 2366,
      "ĠÄĳáº£ng": 2367,
      "ĠbÃ¢y": 2368,
      "uá»ķi": 2369,
      "á»ĭn": 2370,
      "Ġsáº¯t": 2371,
      "ĠThiáº¿t": 2372,
      "ĠCH": 2373,
      "........": 2374,
      "ĠHai": 2375,
      "á»įi": 2376,
      "Ġe": 2377,
      "Ġbi": 2378,
      "ÃĤ": 2379,
      "ĠÄĳá»ĩ": 2380,
      "Ġthang": 2381,
      "ld": 2382,
      "ĠTá»Ń": 2383,
      "ĠhÃ¨": 2384,
      "ĠÄĳiá»ĥn": 2385,
      "ĠhÃło": 2386,
      "ell": 2387,
      "Ġngá»įt": 2388,
      "Ġthá»ķ": 2389,
      "Ġxinh": 2390,
      "ue": 2391,
      "Táº¡i": 2392,
      "Ġlá»ĳi": 2393,
      "ĠxÆ°a": 2394,
      "ĠLa": 2395,
      "Ġná»Ńa": 2396,
      "Ġhá»ĵn": 2397,
      "ĠNgÃłi": 2398,
      "nam": 2399,
      "Ġlan": 2400,
      "Ġtáº£": 2401,
      "ãĢ": 2402,
      "80": 2403,
      "ÃĶng": 2404,
      "ok": 2405,
      "ebook": 2406,
      "itamin": 2407,
      "ĠlÆ°á»£t": 2408,
      "ĠcÄĥng": 2409,
      "Ġngá»±c": 2410,
      "ĠthÆ°á»£ng": 2411,
      "Ġ23": 2412,
      "Ġkem": 2413,
      "ĠphÆ°á»Ŀng": 2414,
      "ĠloÃłi": 2415,
      "ĠThe": 2416,
      "ĠSá»±": 2417,
      "Ġtha": 2418,
      "ĠthoÃ¡ng": 2419,
      "ternet": 2420,
      "ĠÄĲá»ĳi": 2421,
      "ĠCam": 2422,
      "ĠÄĲÆ°á»Ŀng": 2423,
      "Ġthá»±": 2424,
      "Ġbinh": 2425,
      "Ġdá»«ng": 2426,
      "NgÆ°á»Ŀi": 2427,
      "uc": 2428,
      "ÄĲÃ¢y": 2429,
      "oáº¡i": 2430,
      "Ġtráº§n": 2431,
      "Ġloáº¡n": 2432,
      "ĠcÆ¡m": 2433,
      "Ġná»Ĺi": 2434,
      "ĠAr": 2435,
      "ĠnghÃ¨o": 2436,
      "ĠAl": 2437,
      "ĠbÄĥng": 2438,
      "Ġná»£": 2439,
      "ĠViá»ĩn": 2440,
      "ĠiPhone": 2441,
      "á»įng": 2442,
      "ĠÂ»": 2443,
      "Ġngá»«ng": 2444,
      "ĠcÆ¡n": 2445,
      "14": 2446,
      "TrÆ°á»Ľc": 2447,
      "ĠgÆ°Æ¡ng": 2448,
      "ĠphÃº": 2449,
      "ĠThá»Ŀi": 2450,
      "Ġvid": 2451,
      "ps": 2452,
      "Ġï": 2453,
      "ĠLe": 2454,
      "ChÃºng": 2455,
      "ĠVÆ°Æ¡ng": 2456,
      "Ġko": 2457,
      "ĠngÃłn": 2458,
      "ĠCÆ¡": 2459,
      "99": 2460,
      "Ġ60": 2461,
      "ĠhÆ°": 2462,
      "Ġvá»ı": 2463,
      "Ġdiá»ĩt": 2464,
      "Ġvideo": 2465,
      "ĠTiÃªn": 2466,
      "TV": 2467,
      "ĠchÃło": 2468,
      "Ġlá»ĩnh": 2469,
      "ĠtrÃł": 2470,
      "Ġtá»ķn": 2471,
      "ĠnhÃłng": 2472,
      "17": 2473,
      "ĠnÃ£o": 2474,
      "Ġkhuáº©n": 2475,
      "acebook": 2476,
      "pp": 2477,
      "ĠÃĲ": 2478,
      "Ġmá»ĩnh": 2479,
      "all": 2480,
      "Ġlá»Ĺ": 2481,
      "Ġcáº·p": 2482,
      "2016": 2483,
      "ĠÄĳÃłi": 2484,
      "Ġbá»¥i": 2485,
      "ĠbÃ£i": 2486,
      "Ġá»ŀ": 2487,
      "Ġche": 2488,
      "ĠdÆ°á»£c": 2489,
      "ĠcÃłi": 2490,
      "Ġná»Ļp": 2491,
      "Ġbáº¡i": 2492,
      "ĠhÃ´": 2493,
      "ind": 2494,
      "ĠÃ©p": 2495,
      "top": 2496,
      "±ng": 2497,
      "18": 2498,
      "ĠPhan": 2499,
      "ĠTin": 2500,
      "Ã£ng": 2501,
      "Ġtáº¯t": 2502,
      "ĠtÄ©nh": 2503,
      "Ġvua": 2504,
      "Ãºy": 2505,
      "ĠBá»ĩnh": 2506,
      "ne": 2507,
      "ĠtrÃº": 2508,
      "ton": 2509,
      "iz": 2510,
      "ĠlÃ´": 2511,
      "ĠÄĳáºŃu": 2512,
      "ĠthÃ©p": 2513,
      "//": 2514,
      "ĠÄĳÆ°Æ¡": 2515,
      "ĠvÃŃ": 2516,
      "ĠkÃŃn": 2517,
      "Ġrá»Ŀi": 2518,
      "16": 2519,
      "AN": 2520,
      "13": 2521,
      "Ġä": 2522,
      "ĠMáº¹": 2523,
      "Ġmá»¡": 2524,
      "uá»Ļc": 2525,
      "Ġtan": 2526,
      "ĠgiÃł": 2527,
      "ĠVinh": 2528,
      "Ġ?": 2529,
      "Ġthá»Ł": 2530,
      "Ġduyá»ĩt": 2531,
      "Ġnon": 2532,
      "ĠQuy": 2533,
      "Ġáº©n": 2534,
      "ĠtrÃ²n": 2535,
      "Ġonline": 2536,
      "ĠNew": 2537,
      "ĠCÃ¡ch": 2538,
      "ĠÄĲá»Ļ": 2539,
      "ht": 2540,
      "ĠPhÃºc": 2541,
      "ĠTÃ¢m": 2542,
      "Ġháº¹n": 2543,
      "ams": 2544,
      "ĠBá»Łi": 2545,
      "ĠthÃ¹": 2546,
      "ank": 2547,
      "Ġ=": 2548,
      "ĠSá»ĳ": 2549,
      "ĠgiÃłnh": 2550,
      "ich": 2551,
      "Ġthe": 2552,
      "ink": 2553,
      "://": 2554,
      "ĠtrÆ°Æ¡ng": 2555,
      "ĠbÆ¡i": 2556,
      "ĠbÃª": 2557,
      "ĠHá»": 2558,
      "Ġcl": 2559,
      "ĠNgÃ¢n": 2560,
      "Ġ27": 2561,
      "ĠHiá»ĩp": 2562,
      "Ġlá»¥c": 2563,
      "Ġmá»±c": 2564,
      "Ġmá»Ļ": 2565,
      "Ġváº£i": 2566,
      "og": 2567,
      "ĠÄĲáº§u": 2568,
      "Ġtrá»įn": 2569,
      "Ġè": 2570,
      "Ġtá»ĩ": 2571,
      "Ġtrá»¯": 2572,
      "Ġç": 2573,
      "Ġnhi": 2574,
      "ond": 2575,
      "LV": 2576,
      "ĠPl": 2577,
      "Iá»": 2578,
      "und": 2579,
      "ian": 2580,
      "Ġvu": 2581,
      "įt": 2582,
      "oog": 2583,
      "ĠÄĳáº¿": 2584,
      "ĠtrÃło": 2585,
      "Ġmáº¯n": 2586,
      "ĠSinh": 2587,
      "ation": 2588,
      "Ġtreo": 2589,
      "á»³nh": 2590,
      "se": 2591,
      "ĠlÆ°á»Ľi": 2592,
      "Ġthiá»ĥu": 2593,
      "Ġpháº«u": 2594,
      "ĠtrÃ´ng": 2595,
      "Ġpin": 2596,
      "ĠnÃªu": 2597,
      "Ġ26": 2598,
      "ah": 2599,
      "oogle": 2600,
      "Ġbá»įn": 2601,
      "ĠtÃ¢y": 2602,
      "ĠTáº¥t": 2603,
      "ĠbÃ©o": 2604,
      "ĠHÆ°Æ¡ng": 2605,
      "ry": 2606,
      "Ġâ": 2607,
      "á»ĩt": 2608,
      "ĠÄĳá»īnh": 2609,
      "ĠdáºŃy": 2610,
      "Ġcamera": 2611,
      "ĠÄĲáº¿n": 2612,
      "eg": 2613,
      "ĠÄĲá»ĭnh": 2614,
      "Ġbá»ĳn": 2615,
      "ĠtÃ´ng": 2616,
      "ĠVÄ©nh": 2617,
      "ĠHD": 2618,
      "ĠtháºŃp": 2619,
      "ĠHÃłng": 2620,
      "á»§i": 2621,
      "ĠVÃ¢n": 2622,
      "Ġmai": 2623,
      "ĠQuÃ¢n": 2624,
      "ĠHy": 2625,
      "ãĢĤ": 2626,
      "Ġ28": 2627,
      "ĠkÃªu": 2628,
      "ĠCáº§n": 2629,
      "----": 2630,
      "ĠKhÃ¡nh": 2631,
      "Ġti": 2632,
      "Ġmi": 2633,
      "ĠÄĳua": 2634,
      "ĠTiáº¿n": 2635,
      "ĠXe": 2636,
      "ĠMá»Ĺi": 2637,
      "Ġláº»": 2638,
      "phone": 2639,
      "Ġbá»Ŀ": 2640,
      "ĠphÃ¡i": 2641,
      "ĠmÃ£n": 2642,
      "ib": 2643,
      "ĠTuáº¥n": 2644,
      "Ġviá»ĩt": 2645,
      "ĠSp": 2646,
      "ĠTiá»ĥu": 2647,
      "22": 2648,
      "Ġhá»ıng": 2649,
      "tel": 2650,
      "Ġkhá»§ng": 2651,
      "Ġ!": 2652,
      "40": 2653,
      "ĠDá»ĭch": 2654,
      "su": 2655,
      "ĠBÃŃ": 2656,
      "Ġcháº¥m": 2657,
      "ĠgiÃły": 2658,
      "ver": 2659,
      "II": 2660,
      "Ãĥ": 2661,
      "CH": 2662,
      "Ġmá»ĩt": 2663,
      "2015": 2664,
      "Ġphá»©c": 2665,
      "Ġloa": 2666,
      "mm": 2667,
      "ĠHÃ³a": 2668,
      "Ġphu": 2669,
      "ty": 2670,
      "ĠbÃ³": 2671,
      "ĠÄĳá»±ng": 2672,
      "ÃĶ": 2673,
      "ĠTrÆ°á»Ľc": 2674,
      "ĠrÃ£i": 2675,
      "ĠThá»±c": 2676,
      "Ġáº¤": 2677,
      "ĠNhiá»ģu": 2678,
      "ĠThá»§y": 2679,
      "Ġhiá»ĥn": 2680,
      "ĠTáº¿t": 2681,
      "á»¯u": 2682,
      "Ġvitamin": 2683,
      "ĠMar": 2684,
      "Ġhá»©ng": 2685,
      "ĠbÃ²": 2686,
      "Ġchua": 2687,
      "Ġmá»ıi": 2688,
      "Ġof": 2689,
      "Ġbá»ĵi": 2690,
      "%.": 2691,
      "Ġtháº§u": 2692,
      "Ġtiá»ģm": 2693,
      "Ġsáº¯m": 2694,
      "Ġ500": 2695,
      "ĠkÃªnh": 2696,
      "CN": 2697,
      "ĠÄĲÃło": 2698,
      "Ġthiá»ĩt": 2699,
      "ĠgiÆ°á»Ŀng": 2700,
      "Ġ2014": 2701,
      "ĠKhÃ¡ch": 2702,
      "Ġ29": 2703,
      "Ġtá»ĳn": 2704,
      "ĠHÃ¹ng": 2705,
      "ãģ": 2706,
      "are": 2707,
      "70": 2708,
      "Ġ199": 2709,
      "Ġgiá»ıi": 2710,
      "ĠChu": 2711,
      ".\"": 2712,
      "ĠNH": 2713,
      "Ġdao": 2714,
      "out": 2715,
      "Ġná»Ĺ": 2716,
      "Ġ'": 2717,
      "Ġcháº¡m": 2718,
      "ĠÆ°a": 2719,
      "ĠLÃłm": 2720,
      "Ġná»ķ": 2721,
      "ĠÄĳá»ĭch": 2722,
      "45": 2723,
      "ĠlÃŃ": 2724,
      "ĠkhÃ¡n": 2725,
      "iáº¿c": 2726,
      "ĠBr": 2727,
      "ĠnhuáºŃn": 2728,
      "mart": 2729,
      "Ġpháº¥n": 2730,
      "ww": 2731,
      "á»Ĺng": 2732,
      "ant": 2733,
      "ĠchÃ¹a": 2734,
      "ĠBÃłi": 2735,
      "á»±u": 2736,
      "ĠtrÃłn": 2737,
      "ĠdÃ¡m": 2738,
      "ĠlÃ£i": 2739,
      "âĢ¦âĢ¦": 2740,
      "Ġ80": 2741,
      "our": 2742,
      "Bá»Ļ": 2743,
      "ĠkhuyÃªn": 2744,
      "amsung": 2745,
      "ĠsÃ´i": 2746,
      "ĠThÆ°á»Ŀng": 2747,
      "ĠMáº·t": 2748,
      "ĠthÃ¡nh": 2749,
      "ĠtÃ¢n": 2750,
      "Ġthua": 2751,
      "Ġvá»¡": 2752,
      "Viá»ĩc": 2753,
      "ĠRe": 2754,
      "Ġhiá»ĩp": 2755,
      "TrÃªn": 2756,
      "ĠBÃ¡o": 2757,
      "ĠbÆ¡m": 2758,
      "ĠHCM": 2759,
      "Ġdáº¡": 2760,
      "ĠXem": 2761,
      "Ġváº½": 2762,
      "ĠgiÃ£n": 2763,
      "BÃªn": 2764,
      "Ġsá»ĳt": 2765,
      "ĠãĢĤ": 2766,
      "Ġhtt": 2767,
      "ĠCity": 2768,
      "Ġngá»«a": 2769,
      "Ġmá»ĭn": 2770,
      "ĠCá»¥c": 2771,
      "ĠNghá»ĩ": 2772,
      "ina": 2773,
      "¢nh": 2774,
      "ĠSa": 2775,
      "Ġcá»ķng": 2776,
      "ĠDÃ¢n": 2777,
      "ĠtÃ¡n": 2778,
      "Ġdá»©t": 2779,
      "Ġsá»¹": 2780,
      "ĠngÃ£": 2781,
      "ĠchÃºc": 2782,
      "ĠÄĳáºŃm": 2783,
      "NHH": 2784,
      "Ġcáº©n": 2785,
      "Ġkhá»Ľp": 2786,
      "75": 2787,
      "ĠBiÃªn": 2788,
      "ĠmÃłng": 2789,
      ");": 2790,
      "Ġthá»į": 2791,
      "ĠQuyáº¿t": 2792,
      "ĠQuáº£n": 2793,
      "ĠTNHH": 2794,
      "Æ°á»Ľt": 2795,
      "Ġ70": 2796,
      "Ġsh": 2797,
      "ĠmÃły": 2798,
      "Ġgiáº¥c": 2799,
      "ĠKáº¿t": 2800,
      "kg": 2801,
      "Ġtráº¥n": 2802,
      "ĠnÃºt": 2803,
      "Ġláº§m": 2804,
      "ĠxÃ¢m": 2805,
      "Ġá»§ng": 2806,
      "ĠgiÃ¡p": 2807,
      "wn": 2808,
      "áº¹o": 2809,
      "Ġcá»Ļt": 2810,
      "ĠtÃłn": 2811,
      "Ġtráº§m": 2812,
      "ĠCá»ķ": 2813,
      "ĠgiÃ¢y": 2814,
      "ĠÃ´m": 2815,
      "ĠthÃª": 2816,
      "aptop": 2817,
      "ĠvÆ¡": 2818,
      "Ġhá»§y": 2819,
      "ĠThÃ¡ng": 2820,
      "ĠkiÃªn": 2821,
      "á»ĳp": 2822,
      "ĠÄĲá»ĭa": 2823,
      "XH": 2824,
      "Ġgiáº¿t": 2825,
      "ĠTrÆ°á»Łng": 2826,
      "ĠKH": 2827,
      "Ġcanh": 2828,
      "ĠPH": 2829,
      "Ġcháº·n": 2830,
      "ĠhÃ¹ng": 2831,
      "ĠÄĳiá»ĩu": 2832,
      "Ġga": 2833,
      "Ġand": 2834,
      "Ġphun": 2835,
      "ĠHáº¡": 2836,
      "Ġse": 2837,
      "ĠÄĲÃłi": 2838,
      "AM": 2839,
      "á»Ļm": 2840,
      "ĠNháº¥t": 2841,
      "Ġmá»ĵ": 2842,
      "ĠÃ¡c": 2843,
      "ĠPr": 2844,
      "ĠCan": 2845,
      "ĠÄĲa": 2846,
      "ĠSing": 2847,
      "ĠGiáº£i": 2848,
      "á»¥y": 2849,
      "Ġ>": 2850,
      "ĠDi": 2851,
      "ĠlÅ©": 2852,
      "ĠlÃ¢m": 2853,
      "ĠTá»īnh": 2854,
      "ĠThÆ°á»£ng": 2855,
      "ix": 2856,
      "ĠduyÃªn": 2857,
      "ĠTR": 2858,
      "ĠnÆ°á»Ľng": 2859,
      "£t": 2860,
      "ull": 2861,
      "ÄĲá»ĳi": 2862,
      "ĠXÃ¢y": 2863,
      "ĠâĢĺ": 2864,
      "ĠBÃ¡c": 2865,
      "Ġ)": 2866,
      "¿½": 2867,
      "Ġthuyá»ģn": 2868,
      "ĠHuy": 2869,
      "á»¥ng": 2870,
      "ĠHá»¯u": 2871,
      "CP": 2872,
      "ĠnhÃ£n": 2873,
      "ĠphÃ³": 2874,
      "ĠThuáºŃn": 2875,
      "Ġchá»¥c": 2876,
      "ĠMan": 2877,
      "ĠkhÃŃch": 2878,
      "iet": 2879,
      "Ġtung": 2880,
      "TS": 2881,
      "á»ŀ": 2882,
      "ĠTháº§n": 2883,
      "ĠnghÃ¬n": 2884,
      "ĠtÃŃ": 2885,
      "ĠSÆ°": 2886,
      "Ġtrá»¥c": 2887,
      "á»©a": 2888,
      "âĢ¦]": 2889,
      "Ġmáº¡c": 2890,
      "ĠbÃ¬": 2891,
      "Ġgiá»įng": 2892,
      "Ġro": 2893,
      "Ġláº·ng": 2894,
      "ĠthÃ¡ch": 2895,
      "ĠÄĳáº¡p": 2896,
      "09": 2897,
      "ĠLÃł": 2898,
      "ĠPháº§n": 2899,
      "ĠTrá»įng": 2900,
      "ĠDuy": 2901,
      "Ġtháº¥m": 2902,
      "Ġhuáº¥n": 2903,
      "ĠphÃ¡n": 2904,
      "ĠhÃ´i": 2905,
      "Ġgá»£i": 2906,
      "ÄĲiá»ģu": 2907,
      "66": 2908,
      "ĠmÃ³c": 2909,
      "how": 2910,
      "Ġhuynh": 2911,
      "Ġna": 2912,
      "ĠVÃµ": 2913,
      "apore": 2914,
      "ĠBl": 2915,
      "Ġtrá»Ļn": 2916,
      "Ãªnh": 2917,
      "ada": 2918,
      "ĠPro": 2919,
      "Ġbáº¯n": 2920,
      "ĠTa": 2921,
      "ï¿½": 2922,
      "Ġkháº¥u": 2923,
      "ĠÐ": 2924,
      "ck": 2925,
      "ĠÄĳá»£t": 2926,
      "ĠGiáº¥y": 2927,
      ",...": 2928,
      "ĠbÃ´ng": 2929,
      "ĠGoogle": 2930,
      "Ġgáº¡o": 2931,
      "ĠKho": 2932,
      "ien": 2933,
      "ĠTrÆ°Æ¡ng": 2934,
      "Ġ[âĢ¦]": 2935,
      "ĠPhÆ°á»Ľc": 2936,
      "ĠBÃ¡n": 2937,
      "Ġnháº¯n": 2938,
      "orld": 2939,
      "Æ°á»Ľp": 2940,
      "ĠbÃ¡t": 2941,
      "ĠnhÃ´m": 2942,
      "Ġmuá»ĳi": 2943,
      "ight": 2944,
      "ĠchÃŃn": 2945,
      "ĠÃ¡i": 2946,
      "Ġtháº¯c": 2947,
      "ĠTHPT": 2948,
      "ĠGiao": 2949,
      "ĠTrÃªn": 2950,
      "ĠÃļ": 2951,
      "ĠTÃ¬nh": 2952,
      "Ġvinh": 2953,
      "Ġtáº£ng": 2954,
      "ThÃ´ng": 2955,
      "Ġgiáº·t": 2956,
      "ĠÄĳuá»ķi": 2957,
      "):": 2958,
      "ĠKáº¿": 2959,
      "ĠTPHCM": 2960,
      "ĠrÃ¡c": 2961,
      "ump": 2962,
      "ĠtÃºc": 2963,
      "ĠcÆ°Æ¡ng": 2964,
      "Ġé": 2965,
      "Ġbang": 2966,
      "ĠÄĲH": 2967,
      "ĠÄĳáºŃp": 2968,
      "á»ıng": 2969,
      "Ġmiáº¿ng": 2970,
      "%,": 2971,
      "ĠcÃº": 2972,
      "Ġ300": 2973,
      "ĠthÃ¢m": 2974,
      "ĠÄĳá»ĳt": 2975,
      "ĠHá»ĩ": 2976,
      "ĠDÅ©ng": 2977,
      "ĠMa": 2978,
      "CS": 2979,
      "ĠsÃ¡nh": 2980,
      "Ġcáº¥m": 2981,
      "ĠÄĳai": 2982,
      "ĠthÃ¹ng": 2983,
      "MÃ¡y": 2984,
      "ĠcÃ¡p": 2985,
      "ini": 2986,
      "ĠHLV": 2987,
      "ĠchÃ³": 2988,
      "ĠApp": 2989,
      "Ġhoang": 2990,
      "ast": 2991,
      "Ġbá»ĳi": 2992,
      "ost": 2993,
      "ĠkhÃ³c": 2994,
      "35": 2995,
      "Ġpro": 2996,
      "ĠSamsung": 2997,
      "Ġcá»Ŀ": 2998,
      "ĠGiÃª": 2999,
      "ĠLÆ°u": 3000,
      "ĠCáº§u": 3001,
      "Ġ2013": 3002,
      "ey": 3003,
      "Ġbá»įc": 3004,
      "Ġruá»Ļt": 3005,
      "Ġ35": 3006,
      "á»ĳm": 3007,
      "Ġbáº¡ch": 3008,
      "ĠHuáº¿": 3009,
      "ĠAnd": 3010,
      "ĠVá»ģ": 3011,
      "ube": 3012,
      "Ġcá»ı": 3013,
      "ĠPhi": 3014,
      "Ġvang": 3015,
      "Ġj": 3016,
      "ĠngÃłi": 3017,
      "Ġmá»ıng": 3018,
      "ĠhÃł": 3019,
      "ĠbÃ¹": 3020,
      "á»įa": 3021,
      "uk": 3022,
      "xi": 3023,
      "Vá»ģ": 3024,
      "Ġ90": 3025,
      "ĠTÃ´n": 3026,
      "Ġcá»ĳt": 3027,
      "ĠbÃ£o": 3028,
      "ĠlÃ£ng": 3029,
      "ide": 3030,
      "Ġcáº£n": 3031,
      "ĠthÃ³i": 3032,
      "ĠCÃ¹ng": 3033,
      "load": 3034,
      "!!": 3035,
      "Ġtáº©y": 3036,
      "Ġhiáº¿m": 3037,
      "Anh": 3038,
      "ĠDN": 3039,
      "ĠÄĲáº¥t": 3040,
      "NhÆ°ng": 3041,
      "ĠSingapore": 3042,
      "ĠLÆ°Æ¡ng": 3043,
      "ĠCl": 3044,
      "Ġhuá»ĳng": 3045,
      "ĠCup": 3046,
      "ĠTam": 3047,
      "ĠbuÃ´n": 3048,
      "sia": 3049,
      "ĠBH": 3050,
      "Ġáº¡": 3051,
      "Ġchuá»Ļt": 3052,
      "ĠxuÃ¢n": 3053,
      "Ġná»Ł": 3054,
      "Ġvong": 3055,
      "ĠFacebook": 3056,
      "ĠkhoÃ¡ng": 3057,
      "¡i": 3058,
      "ĠÄĳuÃ´i": 3059,
      "ĠngÆ°á»¡ng": 3060,
      "ĠThá»©": 3061,
      "ĠtáºŃt": 3062,
      "Ġchá»«ng": 3063,
      "ft": 3064,
      "Ġquá»¹": 3065,
      "NÄĥm": 3066,
      "ĠAir": 3067,
      "Ġbá»ĥ": 3068,
      "km": 3069,
      "ĠtÃ¡ch": 3070,
      "ĠCÅ©ng": 3071,
      "33": 3072,
      "ber": 3073,
      "Ġhá»©a": 3074,
      "Ġsá»£i": 3075,
      "ky": 3076,
      "ĠÄĳáº¯c": 3077,
      "ĠÄĲÆ°á»£c": 3078,
      "NhÆ°": 3079,
      "Ġkhen": 3080,
      "Ġká»ĭch": 3081,
      "Ġtháº£m": 3082,
      "Ġgá»¡": 3083,
      "Ġtráº¡i": 3084,
      "ĠGD": 3085,
      "ĠHuyá»ĩn": 3086,
      "28": 3087,
      "Ã¹m": 3088,
      "ĠNgÃ´": 3089,
      "Ġxoay": 3090,
      "Ġáº¤n": 3091,
      "ha": 3092,
      "Ġhá»Ĺn": 3093,
      "ĠCÃ¢u": 3094,
      "08": 3095,
      "NhÃł": 3096,
      "roup": 3097,
      "ĠNÃ´ng": 3098,
      "Ġmáº£nh": 3099,
      "ĠdÃ¡n": 3100,
      "ĠHÃ¬nh": 3101,
      "á»ıi": 3102,
      "26": 3103,
      "Ġtrá»Ļi": 3104,
      "ĠbÃ¡m": 3105,
      "Ġsanh": 3106,
      "ĠDÃ¹": 3107,
      "ĠMal": 3108,
      "ĠdÆ°á»Ŀng": 3109,
      "Ġong": 3110,
      "Ġhá»ķ": 3111,
      "Ġáº£o": 3112,
      "ĠOn": 3113,
      "iá»ħu": 3114,
      "Ġchá»Ł": 3115,
      "ĠBáº¡ch": 3116,
      "TP": 3117,
      "07": 3118,
      "21": 3119,
      "ĠGr": 3120,
      "ĠNgoáº¡i": 3121,
      "Ġtrá»ĳng": 3122,
      "ĠTiá»ģn": 3123,
      "Ġ..": 3124,
      "Æ°á»¡i": 3125,
      "ĠSá»Ń": 3126,
      "Ġtiá»ĩc": 3127,
      "ĠLai": 3128,
      "Ġno": 3129,
      "ĠLÃºc": 3130,
      "do": 3131,
      "ĠvÃµ": 3132,
      "Ġ31": 3133,
      "ĠdÃ¢m": 3134,
      "ĠCa": 3135,
      "ĠÄĳÄ©a": 3136,
      "OS": 3137,
      "ED": 3138,
      "Ġkm": 3139,
      "Ngh": 3140,
      "CC": 3141,
      "ans": 3142,
      "IN": 3143,
      "2014": 3144,
      "Ġtuá»ĩ": 3145,
      "ĠInternet": 3146,
      "Ġcá»¡": 3147,
      "Ġtháº£": 3148,
      "fe": 3149,
      "HÃ£y": 3150,
      "BÃłi": 3151,
      "ĠxÆ°á»Łng": 3152,
      "QÄĲ": 3153,
      "Ġnáº¥m": 3154,
      "Ġchap": 3155,
      "Ġ*": 3156,
      "ĠmÆ°á»Ŀi": 3157,
      "ĠsÃºng": 3158,
      "ines": 3159,
      "ĠlÃ²": 3160,
      "ĠGal": 3161,
      "arket": 3162,
      "Ġ45": 3163,
      "ĠUn": 3164,
      "ĠBáº±ng": 3165,
      "ĠtÃ¡o": 3166,
      "la": 3167,
      "ĠMob": 3168,
      "Ã©m": 3169,
      "ĠHÄĲ": 3170,
      "ĠTriá»ģu": 3171,
      "ĠLá»Ļc": 3172,
      "EO": 3173,
      "ĠthÃ¡o": 3174,
      "ĠMy": 3175,
      "Do": 3176,
      "ĠxÃ³a": 3177,
      "log": 3178,
      "Ġlaptop": 3179,
      "ĠCáº£nh": 3180,
      "ĠHÃłnh": 3181,
      "Ġnháº£y": 3182,
      "ĠAm": 3183,
      "Ġmen": 3184,
      "ĠvÆ°Æ¡ng": 3185,
      "ĠQuan": 3186,
      "Ġngáº¯m": 3187,
      "VÃ¬": 3188,
      "ĠchÄĥn": 3189,
      "ĠngáºŃp": 3190,
      "ĠdÃŃnh": 3191,
      "ĠCS": 3192,
      "sa": 3193,
      "ĠTiáº¿ng": 3194,
      "ĠTÃłu": 3195,
      "Ġbá»Ľt": 3196,
      "ĠcÃ¡t": 3197,
      "Ġhot": 3198,
      "Ġxá»©ng": 3199,
      "khÃ´ng": 3200,
      "Ġphá»ıng": 3201,
      "ÄĲÆ°á»£c": 3202,
      "ĠdÃ¢u": 3203,
      "ĠChiáº¿n": 3204,
      "ĠCháº¥t": 3205,
      "Ġ36": 3206,
      "Ã¹y": 3207,
      "Ġtá»±a": 3208,
      "ĠTá»±": 3209,
      "ĠnhÃ¡nh": 3210,
      "oy": 3211,
      "ĠPark": 3212,
      "ĠCom": 3213,
      "ĠMáº·c": 3214,
      "Ġtiáº¿c": 3215,
      "ĠghÃ©p": 3216,
      "ge": 3217,
      "áºł": 3218,
      "ĠLá»ħ": 3219,
      "Ġtriá»ĩt": 3220,
      "ĠvÃ¢n": 3221,
      "ĠsÄĥn": 3222,
      "Ġhi": 3223,
      "ĠAd": 3224,
      "old": 3225,
      "ĠcÃ¢": 3226,
      "ĠÃļc": 3227,
      "ĠWorld": 3228,
      "ĠTrump": 3229,
      "oh": 3230,
      "ĠkÄ©": 3231,
      "Ð¾": 3232,
      "ĠgiáºŃn": 3233,
      "Ġ2012": 3234,
      "Ġháº±ng": 3235,
      "axy": 3236,
      "55": 3237,
      "ĠngÆ°Æ¡": 3238,
      "pl": 3239,
      "Ġáº¢nh": 3240,
      "68": 3241,
      "áº«y": 3242,
      "ear": 3243,
      "ĠphÃŃm": 3244,
      "ĠTiáº¿p": 3245,
      "Ġ02": 3246,
      "ĠToÃłn": 3247,
      "įa": 3248,
      "ĠkhoÃ¡n": 3249,
      "end": 3250,
      "Ġviá»ħn": 3251,
      "&#": 3252,
      "ive": 3253,
      "ĠLoan": 3254,
      "LÃł": 3255,
      "ĠCÄĥn": 3256,
      "CÃ¡ch": 3257,
      "ĠBá»ĵ": 3258,
      "ĠchÆ°": 3259,
      "xy": 3260,
      "indow": 3261,
      "roid": 3262,
      "ĠmÆ°u": 3263,
      "Ġnáº¡p": 3264,
      "Ġháº§m": 3265,
      "ĠPhá»¥": 3266,
      "ĠgiáºŃt": 3267,
      "Ġmá»įc": 3268,
      "ĠVá»ĭ": 3269,
      "ĠtÃ´m": 3270,
      "ĠÄĳam": 3271,
      "Ġchuá»Ĺi": 3272,
      "90": 3273,
      "oll": 3274,
      "sh": 3275,
      "tion": 3276,
      "Ġtháº¡ch": 3277,
      "Ġtá»ıa": 3278,
      "ĠApple": 3279,
      "fa": 3280,
      "500": 3281,
      "Ġná»ĵi": 3282,
      "Ġrá»§i": 3283,
      "ee": 3284,
      "Ġngá»Ļ": 3285,
      "Iá»Ĩ": 3286,
      "CO": 3287,
      "ork": 3288,
      "ĠCN": 3289,
      "Ġthan": 3290,
      "ĠCha": 3291,
      "icro": 3292,
      "ĠÄĲÄĥng": 3293,
      "ĠÃĿ": 3294,
      "Ġcong": 3295,
      "ĠHÆ¡n": 3296,
      "ĠÄĳÃł": 3297,
      "Ġcháº¥n": 3298,
      "ĠNÆ°á»Ľc": 3299,
      "ĠÄĳeo": 3300,
      "Ġtáº¿t": 3301,
      "Ġbáº©n": 3302,
      "ĠThá»į": 3303,
      "Ġchuá»Ļng": 3304,
      "ĠThÆ°": 3305,
      "ĠDoanh": 3306,
      "ĠtrÃºng": 3307,
      "ĠxÄĥng": 3308,
      "Cho": 3309,
      "ice": 3310,
      "?âĢĿ": 3311,
      "Ġkha": 3312,
      "Ġvá»Ļi": 3313,
      "áº¾": 3314,
      "ies": 3315,
      "ĠngÆ¡i": 3316,
      "Ġbáº¯c": 3317,
      "Ġchim": 3318,
      "alo": 3319,
      "ĠhÃłn": 3320,
      "áº«m": 3321,
      "Ġsex": 3322,
      "ĠÄĳá»ģn": 3323,
      "ĠtrÃŃch": 3324,
      "ĠTháº§y": 3325,
      "Ġfor": 3326,
      "Ġnhá»ĭp": 3327,
      "æľ": 3328,
      "ĠÄĳÃłm": 3329,
      "ĠQua": 3330,
      "ss": 3331,
      "Nhiá»ģu": 3332,
      "ĠThÆ¡": 3333,
      "05": 3334,
      "Ġbáº¡o": 3335,
      "ĠÄĲáº¡o": 3336,
      "ĠngÃ¢m": 3337,
      "Ġgá»ĳi": 3338,
      "ĠLÃło": 3339,
      "ĠMua": 3340,
      "Ġá»ĳc": 3341,
      "ran": 3342,
      "Ġváº¹n": 3343,
      "ĠHá»£p": 3344,
      "ĠSy": 3345,
      "ĠCÃ¡i": 3346,
      "ĠTT": 3347,
      "03": 3348,
      "ĠDung": 3349,
      "100": 3350,
      "ĠchÄĥng": 3351,
      "Ã£nh": 3352,
      "ĠViÃªn": 3353,
      "áº¹t": 3354,
      "ml": 3355,
      "ĠHÆ°á»Ľng": 3356,
      "ĠchÃºa": 3357,
      "Ġdá»ĭu": 3358,
      "outube": 3359,
      "ĠXin": 3360,
      "02": 3361,
      "ĠTÃ´": 3362,
      "Ġmá»Ŀ": 3363,
      "ĠvÃ¡y": 3364,
      "cÃ³": 3365,
      "ĠThá»ĥ": 3366,
      "áº¤": 3367,
      "Ġlá»ĩch": 3368,
      "ĠNghÄ©a": 3369,
      "ĠcÃºng": 3370,
      "ĠGiá»Ľi": 3371,
      "ÄĲáº¿n": 3372,
      "ĠNG": 3373,
      "ĠthÃ´": 3374,
      "ĠÄĳe": 3375,
      "Ġnháº¡y": 3376,
      "Ġst": 3377,
      "Ġmáº§m": 3378,
      "á»§a": 3379,
      "ÃĬ": 3380,
      "go": 3381,
      "04": 3382,
      "ĠTÄĥng": 3383,
      "CÅ©ng": 3384,
      "ri": 3385,
      "Ġdá»įc": 3386,
      "AT": 3387,
      "ĠcáºŃy": 3388,
      "Ġthuáº§n": 3389,
      "Ġthá»£": 3390,
      "con": 3391,
      "Ġmáº»": 3392,
      "martphone": 3393,
      "ĠAS": 3394,
      "ĠÄĳÃ¢": 3395,
      "ĠthÄĥng": 3396,
      "Ġngáº¡c": 3397,
      "ĠkhÃ¡t": 3398,
      "Ġbia": 3399,
      "ĠnhÃ¢": 3400,
      "ĠbÃ¡": 3401,
      "arketing": 3402,
      "ĠÃ¢n": 3403,
      "06": 3404,
      "Ġemail": 3405,
      "Ġsay": 3406,
      "ĠCP": 3407,
      "Ġgáº¡ch": 3408,
      "Ġtháº±ng": 3409,
      "ĠÄĲÃ´": 3410,
      "Ġnho": 3411,
      "Thá»Ŀi": 3412,
      "Ġ03": 3413,
      "áº¢": 3414,
      "Sá»±": 3415,
      "ace": 3416,
      "Ġal": 3417,
      "Ġcáº¯m": 3418,
      "Ġcáº¥t": 3419,
      "ĠNá»¯": 3420,
      "ĠCo": 3421,
      "Ġmáº¡n": 3422,
      "ment": 3423,
      "ideo": 3424,
      "79": 3425,
      "ĠngÃ³n": 3426,
      "ĠlÃ£m": 3427,
      "ĠTÃ¬m": 3428,
      "ĠnhÆ°á»£ng": 3429,
      "ĠcÆ°á»Ľc": 3430,
      "ĠTháº¯ng": 3431,
      "ĠII": 3432,
      "ĠMÃ£": 3433,
      "Ġchá»§ng": 3434,
      "ĠÄĳiá»ĩp": 3435,
      "Ġtá»įa": 3436,
      "Æł": 3437,
      "ĠxÃ¡ch": 3438,
      "Ġcom": 3439,
      "Ġsáº¡c": 3440,
      "Chá»ī": 3441,
      "ĠXÃ£": 3442,
      "ĠTp": 3443,
      "Ġngá»įn": 3444,
      "ĠGalaxy": 3445,
      "ĠVietnam": 3446,
      "ach": 3447,
      "so": 3448,
      "Ġlong": 3449,
      "Ġká»ĩ": 3450,
      "ÃĶNG": 3451,
      "ĠNgay": 3452,
      "Ġfile": 3453,
      "ĠMá»¥c": 3454,
      "Ġphiá»ģn": 3455,
      "LB": 3456,
      "ĠÄĳá»¥": 3457,
      "ĠtiÃª": 3458,
      "Ġlá»«a": 3459,
      "Ġlang": 3460,
      "ĠMá»įi": 3461,
      "ĠÄĲá»ģ": 3462,
      "Ġ2011": 3463,
      "Dá»±": 3464,
      "Ġpl": 3465,
      "2013": 3466,
      "ĠÄĲá»Ļng": 3467,
      "ague": 3468,
      "ĠTÃ²a": 3469,
      "ĠÄĳáº¯t": 3470,
      "ony": 3471,
      "Giá»": 3472,
      "per": 3473,
      "ĠtrÃ´i": 3474,
      "ĠTháº£o": 3475,
      "ĠÃĶ": 3476,
      "ĠxÆ¡": 3477,
      "ĠlÃºa": 3478,
      "Ã¬a": 3479,
      "ĠïĢ": 3480,
      "ĠTruyá»ģn": 3481,
      "ĠmÃŃ": 3482,
      "ĠphÆ¡i": 3483,
      "Ġchá»ĳi": 3484,
      "ĠSo": 3485,
      "36": 3486,
      "Ġháº¹p": 3487,
      "Ġhiáº¿n": 3488,
      "Ġngá»įc": 3489,
      "ĠtuÃ¢n": 3490,
      "ĠtÃłng": 3491,
      "Con": 3492,
      "Ġhang": 3493,
      "©t": 3494,
      "Ġ32": 3495,
      "amp": 3496,
      "ĠÄĳÃºc": 3497,
      "ĠhiÃª": 3498,
      "Ġsoi": 3499,
      "ĠSong": 3500,
      "ĠKiá»ĥm": 3501,
      "ĠÄĲá»Ļi": 3502,
      "38": 3503,
      "Ð°": 3504,
      "ect": 3505,
      "use": 3506,
      "ug": 3507,
      "CT": 3508,
      "Trung": 3509,
      "ĠDÆ°á»£c": 3510,
      "wnload": 3511,
      "BÆ°á»Ľc": 3512,
      "indows": 3513,
      "uch": 3514,
      "AS": 3515,
      "ĠCá»¥": 3516,
      "ĠdÃłn": 3517,
      "ĠrÅ©": 3518,
      "man": 3519,
      "ĠVá»¥": 3520,
      "ĠAc": 3521,
      "Ġnáº¿p": 3522,
      "ĠDiá»ĩn": 3523,
      "Ġ2010": 3524,
      "rus": 3525,
      "ĠChÃ¡nh": 3526,
      "ĠchÃ¡n": 3527,
      "ĠkÃŃ": 3528,
      "ĠWeb": 3529,
      "Ġim": 3530,
      "ĠnÃ¡m": 3531,
      "29": 3532,
      "âĢ¦.": 3533,
      "ester": 3534,
      "ĠAi": 3535,
      "ĠdÄ©": 3536,
      "\\\\": 3537,
      "Ġhttp": 3538,
      "ĠTÃŃnh": 3539,
      "ĠtrÆ°a": 3540,
      "Thá»±c": 3541,
      "ĠnÃ©n": 3542,
      "ĠLao": 3543,
      "ĠsÃ³t": 3544,
      "ke": 3545,
      "ĠBar": 3546,
      "Ġbáº¥m": 3547,
      "Ġhá»ĳi": 3548,
      "ĠbÃºt": 3549,
      "Ġz": 3550,
      "to": 3551,
      "Ġxáº£": 3552,
      "Ġbo": 3553,
      "ĠChuyÃªn": 3554,
      "ĠbáºŃn": 3555,
      "xit": 3556,
      "ĠlÃ¡t": 3557,
      "onal": 3558,
      "Ġká»ģ": 3559,
      "ĠtÃ¡": 3560,
      "aysia": 3561,
      "ome": 3562,
      "ChÃŃnh": 3563,
      "bum": 3564,
      "Ġquyáº¿n": 3565,
      "ĠChá»ĭ": 3566,
      "me": 3567,
      "Ġsp": 3568,
      "ino": 3569,
      "ĠVI": 3570,
      "ĠPhil": 3571,
      "Ġá»©c": 3572,
      "ĠBáº¥t": 3573,
      "27": 3574,
      "ĠNÃªn": 3575,
      "Ġsoáº¡n": 3576,
      "ood": 3577,
      "ĠHoÃłn": 3578,
      "Ġ150": 3579,
      "Ġ#": 3580,
      "ash": 3581,
      "ĠTÄ©nh": 3582,
      "SÃ¡ng": 3583,
      "Ġcháº½": 3584,
      "Ġná»ĵng": 3585,
      "ĠEx": 3586,
      "ĠBÃ¹i": 3587,
      "Ġlau": 3588,
      "ĠNai": 3589,
      "ĠGiÃªsu": 3590,
      "Ġcá»±u": 3591,
      "BÃ¡n": 3592,
      "Æ°á»£n": 3593,
      "á»µ": 3594,
      "ivers": 3595,
      "ipp": 3596,
      "ĠDiá»ħn": 3597,
      "89": 3598,
      "uá»ĵn": 3599,
      "Ġlam": 3600,
      "Ġac": 3601,
      "ÄĲáº¡i": 3602,
      "ara": 3603,
      "Ġtam": 3604,
      "Ġchiáº¿t": 3605,
      "ĠhÃ¢m": 3606,
      "Ġtrá»Ļm": 3607,
      "áº¯k": 3608,
      "Ġkhuyáº¿t": 3609,
      "ĠvÄ©": 3610,
      "ure": 3611,
      "ĠlÆ¡": 3612,
      "Ġnháº«n": 3613,
      "ĠThi": 3614,
      "ÄĲá»ĵng": 3615,
      "ve": 3616,
      "Ġráº¯n": 3617,
      "ĠCung": 3618,
      "Ðµ": 3619,
      "ĠThÃŃch": 3620,
      "ĠSer": 3621,
      "lex": 3622,
      "á»Ĳ": 3623,
      "Ġshop": 3624,
      "Ġrá»¡": 3625,
      "Æ°Æ¡n": 3626,
      "yl": 3627,
      "ĠTrÃŃ": 3628,
      "ĠÄĲinh": 3629,
      "Ġdá»«a": 3630,
      "pr": 3631,
      "Em": 3632,
      "ĠtrÃ¡ng": 3633,
      "ama": 3634,
      "ĠDanh": 3635,
      "Ġchanh": 3636,
      "ĠOnline": 3637,
      "ĠGI": 3638,
      "Ġsmartphone": 3639,
      "Ġhoáº£ng": 3640,
      "ĠChung": 3641,
      "ĠAndroid": 3642,
      "Ġde": 3643,
      "ĠNÃ³i": 3644,
      "Ġtia": 3645,
      "ĠÄĳáº¯p": 3646,
      "Ġtriá»ģu": 3647,
      "ĠNhi": 3648,
      "GB": 3649,
      "Ġchá»ĳt": 3650,
      "ĠPar": 3651,
      "ĠMÃ¬nh": 3652,
      "Ġtop": 3653,
      "Ġchai": 3654,
      "Ġnháº¡t": 3655,
      "ĠMalaysia": 3656,
      "Ġmáº¡o": 3657,
      "Ġvan": 3658,
      "ĠcÆ°á»Ľp": 3659,
      "de": 3660,
      "................": 3661,
      "ĠÃĤm": 3662,
      "ĠBiá»ĥn": 3663,
      "ĠVÃŃ": 3664,
      "Ġson": 3665,
      "ĠkhÃ©o": 3666,
      "ĠmÃ¬": 3667,
      "ĠHáºŃu": 3668,
      "ĠÃªm": 3669,
      "GiÃ¡": 3670,
      "Ġxáº¡": 3671,
      "ĠvuÃ´ng": 3672,
      "assage": 3673,
      "ĠsÃ¡u": 3674,
      "Ġkhá»©": 3675,
      "ĠÄĲá»ĵ": 3676,
      "Ġváº·t": 3677,
      "ĠLáº¡t": 3678,
      "ĠmÆ°Æ¡i": 3679,
      "ens": 3680,
      "Ġmá»Ļng": 3681,
      "ĠbÃº": 3682,
      "tein": 3683,
      "ĠÄĳiÃª": 3684,
      "á»Ńu": 3685,
      "rid": 3686,
      "ĠCuá»Ļc": 3687,
      "Ġhá»ıa": 3688,
      "agen": 3689,
      "ĠSun": 3690,
      "NÄĲ": 3691,
      "iss": 3692,
      "Ġlá»Ļc": 3693,
      "ĠÆ¡i": 3694,
      "Ġtrá»ĳn": 3695,
      "Ġtráº¡m": 3696,
      "ĠtÃºy": 3697,
      "Ġkháº©n": 3698,
      "Â¿": 3699,
      "ĠDÆ°á»Ľi": 3700,
      "Ġdá»įa": 3701,
      "Â½": 3702,
      "ÄĲáº·c": 3703,
      "Ġliá»ģu": 3704,
      "ĠKá»¹": 3705,
      "ĠmÃ¢y": 3706,
      "ĠtráºŃt": 3707,
      "ĠLoáº¡i": 3708,
      "Ġthiá»ĩp": 3709,
      "á»ĥn": 3710,
      "ĠthÃ¡p": 3711,
      "Ġlá»ıng": 3712,
      "Ġtour": 3713,
      "nÄĥm": 3714,
      "ĠÄĳá»Ĺ": 3715,
      "Ġcáº£ng": 3716,
      "ĠCáº£": 3717,
      "Ġ|--": 3718,
      "ĠThá»ĳng": 3719,
      "Ho": 3720,
      "Æ¯á»": 3721,
      "Ġmá»ī": 3722,
      "ĠTrá»ĭ": 3723,
      "Ġchuyá»ģn": 3724,
      "Thiáº¿t": 3725,
      "ER": 3726,
      "ĠlÃ³t": 3727,
      "ĠKiáº¿n": 3728,
      "ĠtiÃªm": 3729,
      "ĠlÆ°á»¡i": 3730,
      "In": 3731,
      "uro": 3732,
      "ĠhoÃł": 3733,
      "ĠThá»¥y": 3734,
      "ĠchÃ©p": 3735,
      "85": 3736,
      "ata": 3737,
      "Ġ2019": 3738,
      "ĠÄĲiá»ĥm": 3739,
      "ust": 3740,
      "Ġtáº§n": 3741,
      "Ġváº¡n": 3742,
      "ĠÄĳá»ĩm": 3743,
      "ĠTV": 3744,
      "ĠtrÆ°á»£t": 3745,
      "ĠTrÃł": 3746,
      "ĠThÃ¢n": 3747,
      "ĠBáº¿n": 3748,
      "iver": 3749,
      "ico": 3750,
      "Ġheo": 3751,
      "Ġrung": 3752,
      "Ġtháº§m": 3753,
      "NT": 3754,
      "Ġ05": 3755,
      "ĠtÃŃm": 3756,
      "ĠnhiÃª": 3757,
      "ĠWindows": 3758,
      "Ġleo": 3759,
      "ĠRes": 3760,
      "Ġsan": 3761,
      "Ġsen": 3762,
      "ĠCÆ°á»Ŀng": 3763,
      "ĠkhÃ¡i": 3764,
      "ĠInd": 3765,
      "ĠTinh": 3766,
      "ĠKiá»ģu": 3767,
      "áº»o": 3768,
      "Ġná»¥": 3769,
      "ĠchÃ¡nh": 3770,
      "ĠÄĲT": 3771,
      "ĠÄĳoáº¡t": 3772,
      "orn": 3773,
      "ĠtrÃłng": 3774,
      "ĠBe": 3775,
      "Ġmod": 3776,
      "Ġtá»©": 3777,
      "ier": 3778,
      "TrÆ°á»Ŀng": 3779,
      "Ġtháº¥u": 3780,
      "CÃ²n": 3781,
      "ota": 3782,
      "á»ĭt": 3783,
      "ĠSao": 3784,
      "77": 3785,
      "æľŁ": 3786,
      "44": 3787,
      "Ġmáº¿n": 3788,
      "Ġrá»±c": 3789,
      "ĠchÃ¢m": 3790,
      "VÃł": 3791,
      "ĠQuá»³nh": 3792,
      "Ġmuá»Ļn": 3793,
      "Ġtiá»ħn": 3794,
      "ĠmÃ¹": 3795,
      "Ġkhoan": 3796,
      "65": 3797,
      "Ġbá»ķng": 3798,
      "ĠTrá»Ŀi": 3799,
      "ica": 3800,
      "ĠtÃª": 3801,
      "Ġcay": 3802,
      "Ġquáº¡t": 3803,
      "Ġcá»¥m": 3804,
      "ĠlÃŃt": 3805,
      "Ġbá»ĵn": 3806,
      "ĠTham": 3807,
      "ĠÄĳÃ³i": 3808,
      "ĠvÃª": 3809,
      "ma": 3810,
      "ĠTháºŃt": 3811,
      "ĠviÃª": 3812,
      "Æ°á»Łi": 3813,
      "Ġven": 3814,
      "att": 3815,
      "land": 3816,
      "Ġcá»ĳc": 3817,
      "ĠSim": 3818,
      "Ġhoan": 3819,
      "Ġbáº¯p": 3820,
      "ial": 3821,
      "Ġnáº§y": 3822,
      "Ġgiam": 3823,
      "ĠCar": 3824,
      "ĠkhÃ¢u": 3825,
      "ĠCLB": 3826,
      "ĠkhÃ³i": 3827,
      "ium": 3828,
      "Ġkhe": 3829,
      "aw": 3830,
      "ĠCá»Ńa": 3831,
      "Trang": 3832,
      "Ġkhiáº¿u": 3833,
      "ĠÃ´n": 3834,
      "ĠPhÆ°á»Ŀng": 3835,
      "Ġbáº¿n": 3836,
      "SD": 3837,
      "da": 3838,
      "ĠxÃ´ng": 3839,
      "Ġinternet": 3840,
      "rol": 3841,
      "Ġinox": 3842,
      "ivi": 3843,
      "ĠÄĳáº¡n": 3844,
      "Ġhuyá»ģn": 3845,
      "ĠngÃµ": 3846,
      "ĠTiÃªu": 3847,
      "ĠsÃ´": 3848,
      "ĠvÃ¢": 3849,
      "ĠdÃ£": 3850,
      "ĠLáº¡c": 3851,
      "ĠbiÃª": 3852,
      "ath": 3853,
      "tÃ´": 3854,
      "Ġnga": 3855,
      "DÃ¹": 3856,
      "á»¥t": 3857,
      "ĠCÃ¡t": 3858,
      "ĠNhac": 3859,
      "Ġngáº§m": 3860,
      "ote": 3861,
      "ĠxÃ³m": 3862,
      "Ġam": 3863,
      "ĠniÃªm": 3864,
      "uyen": 3865,
      "ĠYÃªu": 3866,
      "ĠTS": 3867,
      "Ġoxy": 3868,
      "ĠmÃ¡": 3869,
      "Ġnáº¡": 3870,
      "Ġngá»±a": 3871,
      "ĠMÃ´i": 3872,
      "Ġáº¥p": 3873,
      "ĠBÄĲ": 3874,
      "TM": 3875,
      "Ġbáº£y": 3876,
      "ID": 3877,
      "omes": 3878,
      "ĠrÃło": 3879,
      "Ġ08": 3880,
      "Ġmáº£ng": 3881,
      "34": 3882,
      "UY": 3883,
      "HÃł": 3884,
      "Ġshow": 3885,
      "ĠÄĲá»": 3886,
      "ĠbÃ³n": 3887,
      "Tá»ķng": 3888,
      "69": 3889,
      "Ġdá»įn": 3890,
      "ĠHuyá»ģn": 3891,
      "Ġrao": 3892,
      "£n": 3893,
      "67": 3894,
      "ĠSu": 3895,
      "app": 3896,
      "ĠÄĲá»Ĺ": 3897,
      "ãĤ": 3898,
      "ool": 3899,
      "ĠLá»£i": 3900,
      "aph": 3901,
      "ĠUy": 3902,
      "NN": 3903,
      "ĠchÃ¬m": 3904,
      "ĠNghe": 3905,
      "ĠVÃło": 3906,
      "AR": 3907,
      "Ġmá»ĳc": 3908,
      "Ġdownload": 3909,
      "ĠLá»ĭch": 3910,
      "ca": 3911,
      "**": 3912,
      "Ġbe": 3913,
      "son": 3914,
      "ĠmÃ²n": 3915,
      "ĠcÃ£i": 3916,
      "ĠrÃ¨n": 3917,
      "ym": 3918,
      "Ġchinh": 3919,
      "ĠHay": 3920,
      "Ġinch": 3921,
      "ĠHÃ¡n": 3922,
      "Ġlá»ĵ": 3923,
      "ĠghÃ©": 3924,
      "!âĢĿ": 3925,
      "Ġthiá»ģn": 3926,
      "ãĥ": 3927,
      "ĠlÃŃnh": 3928,
      "ngÆ°á»Ŀi": 3929,
      "ĠdÃ¢ng": 3930,
      "Ġfan": 3931,
      "ngÃły": 3932,
      "ĠTe": 3933,
      "ĠlÃ´i": 3934,
      "ĠNguyá»ĩt": 3935,
      "ĠTháº¡nh": 3936,
      "Ġmassage": 3937,
      "ĠtrÆ¡n": 3938,
      "ĠnÃ´": 3939,
      "alia": 3940,
      "ĠbÃ´i": 3941,
      "39": 3942,
      "Ġcá»ĳng": 3943,
      "áº±n": 3944,
      "ĠPhim": 3945,
      "OT": 3946,
      "ones": 3947,
      "ĠvÃº": 3948,
      "ĠThay": 3949,
      "ĠÃ¡m": 3950,
      "Ð¸": 3951,
      "ON": 3952,
      "thÃ¡ng": 3953,
      "ĠLED": 3954,
      "Máº·c": 3955,
      "ĠTriá»ĩu": 3956,
      "áº¬": 3957,
      "ĠTáº¥n": 3958,
      "Ġlink": 3959,
      "Ľn": 3960,
      "ĠDáº§u": 3961,
      "ĠTrá»ĭnh": 3962,
      "Ġ04": 3963,
      "ĠEl": 3964,
      "ĠDÃ¹ng": 3965,
      "Ġthoa": 3966,
      "IC": 3967,
      "ĠCanada": 3968,
      "ĠLam": 3969,
      "Ġtháº¯t": 3970,
      "Ġxáº¿": 3971,
      "Ġ400": 3972,
      "IS": 3973,
      "ĠTim": 3974,
      "ĠquÃ¡i": 3975,
      "ĠViettel": 3976,
      "Hai": 3977,
      "ĠSÃ¡ng": 3978,
      "bo": 3979,
      "oto": 3980,
      "37": 3981,
      "Ġgam": 3982,
      "Ġgiáº¥u": 3983,
      "enn": 3984,
      "Ġpháº¿": 3985,
      "ĠÄĳáº»": 3986,
      "ĠÄĳÃ¡y": 3987,
      "Ġá»ĵn": 3988,
      "Ġkhoáº»": 3989,
      "Ġbá»Ĺng": 3990,
      "VÃło": 3991,
      "ĠPV": 3992,
      "ĠlÄĥng": 3993,
      "Ġkg": 3994,
      "ĠlÃ¢y": 3995,
      "ĠÆ¡": 3996,
      "ĠNháº¡c": 3997,
      "ĠÄĳá»ĵn": 3998,
      "ĠchiÃªn": 3999,
      "Ĥn": 4000,
      "ĠsÆ°á»Ľng": 4001,
      "ĠHáº¡nh": 4002,
      "ES": 4003,
      "ĠChÃºc": 4004,
      "ĠNhá»Ŀ": 4005,
      "Ġmá»ķ": 4006,
      "Ġlá»ĵng": 4007,
      "Ġkhá»ķng": 4008,
      "CÃ¹ng": 4009,
      "Ġsáº¥y": 4010,
      "Ġli": 4011,
      "olf": 4012,
      "aser": 4013,
      "ĠMá»Ľi": 4014,
      "Ġtao": 4015,
      "ĠcháºŃu": 4016,
      "==": 4017,
      "Ġcháº£": 4018,
      "ĠMáº¡nh": 4019,
      "ĠThá»ĭnh": 4020,
      "Ġclick": 4021,
      "ĠthÃ¢": 4022,
      "ĠÆ°á»Ľt": 4023,
      "ĠShop": 4024,
      "Thá»©": 4025,
      "Ġná»ģ": 4026,
      "Má»Ĺi": 4027,
      "int": 4028,
      "ĠlÃµi": 4029,
      "Ġváº¯ng": 4030,
      "ĠNhu": 4031,
      "Chá»§": 4032,
      "ith": 4033,
      "ade": 4034,
      "ÃŃa": 4035,
      "Ġtang": 4036,
      "ĠTÃªn": 4037,
      "Ã²m": 4038,
      "ĠnhÅ©ng": 4039,
      "ĠToÃ¡n": 4040,
      "GT": 4041,
      "ĠÄĲÃ£": 4042,
      "ĠcÆ°á»£c": 4043,
      "ĠÄĲá»«ng": 4044,
      "Ġser": 4045,
      "ĠHot": 4046,
      "CÃ´": 4047,
      "Ġcm": 4048,
      "ĠquÃ©t": 4049,
      "ashi": 4050,
      "ba": 4051,
      "Ġmau": 4052,
      "ĠHiá»ĩu": 4053,
      "Ġcafe": 4054,
      "ĠtrÃ¢n": 4055,
      "ĠchiÃªu": 4056,
      "ĠtrÆ°Æ¡": 4057,
      "ĠÄĲÃ¨n": 4058,
      "ĠnÃ¢u": 4059,
      "lock": 4060,
      "ĠvÄ©nh": 4061,
      "ĠTháº¡ch": 4062,
      "ĠEd": 4063,
      "ĠPlus": 4064,
      "ĠCáº£m": 4065,
      "ali": 4066,
      "Ġváº£": 4067,
      "Ġaxit": 4068,
      "ake": 4069,
      "ĠÄĳu": 4070,
      "ĠHuá»³nh": 4071,
      "Ġhá»įng": 4072,
      "ĠSan": 4073,
      "Ġä¸": 4074,
      "32": 4075,
      "ose": 4076,
      "ĠsÆ°u": 4077,
      "ead": 4078,
      "ĠRáº¥t": 4079,
      "ollagen": 4080,
      "ĠkhÃ´n": 4081,
      "ĠAs": 4082,
      "onda": 4083,
      "Ġchá»Ľ": 4084,
      "ĠnhÄĥn": 4085,
      "CÄĥn": 4086,
      "ĠÄĲáº·ng": 4087,
      "ĠSÄ©": 4088,
      "ĠIs": 4089,
      "ĠTuyÃªn": 4090,
      "ĠmÃ©t": 4091,
      "Ngay": 4092,
      "Ġ38": 4093,
      "Ġnháº§m": 4094,
      "Ġphá»ķi": 4095,
      "ĠhÃ£i": 4096,
      "ĠmÃ³ng": 4097,
      "Ġhao": 4098,
      "trong": 4099,
      "Ġcua": 4100,
      "Sáº£n": 4101,
      "ĠÄĳá»ĵi": 4102,
      "2012": 4103,
      "ĠCr": 4104,
      "BC": 4105,
      "--------": 4106,
      "ĠmÃ´ng": 4107,
      "ĠLá»¥c": 4108,
      "ĠUSB": 4109,
      "48": 4110,
      "orm": 4111,
      "ĠIP": 4112,
      "ĠsÆ°Æ¡ng": 4113,
      "ĠÄĳÃ¢m": 4114,
      "Ġtre": 4115,
      "ĠÄĳá»Ľn": 4116,
      "GD": 4117,
      "ĠNÆ¡i": 4118,
      "Ġbá»ĳc": 4119,
      "ish": 4120,
      "Ġdáº¡o": 4121,
      "BS": 4122,
      "ave": 4123,
      "Ġthá»ķi": 4124,
      "ĠkhoÃ¡c": 4125,
      "Táº¥t": 4126,
      "?\"": 4127,
      "49": 4128,
      "Ġxi": 4129,
      "ria": 4130,
      "ĠvÃ¡ch": 4131,
      "Ġtem": 4132,
      "ĠHÃ´m": 4133,
      "Ġvirus": 4134,
      "Ġlá»£n": 4135,
      "ĠthoÃ¡i": 4136,
      "Ġsáº¹o": 4137,
      "Tháº¿": 4138,
      "Ġclip": 4139,
      "Ġyoutube": 4140,
      "ĠháºŃn": 4141,
      "ĠThiáº¿u": 4142,
      "Ġtá»±u": 4143,
      "ĠThÄĥng": 4144,
      "ĠkhoÄĥn": 4145,
      "ĠSe": 4146,
      "ĠChÃ¢n": 4147,
      "Ġ2020": 4148,
      "Ġnhan": 4149,
      "IM": 4150,
      "ĠHoÃłi": 4151,
      "ĠÃł": 4152,
      "ĠÄĲÆ¡n": 4153,
      "Ġtá»¥ng": 4154,
      "ĠâĢĿ": 4155,
      "tor": 4156,
      "ĠLy": 4157,
      "ĠThiá»ĩn": 4158,
      "ĠlÄĥn": 4159,
      "LC": 4160,
      "Ġnáº¯p": 4161,
      "ChÆ°Æ¡ng": 4162,
      "Ġxay": 4163,
      "ĠVÅ©ng": 4164,
      "ET": 4165,
      "ĠPháº£i": 4166,
      "ĠTy": 4167,
      "ĠÄĲi": 4168,
      "ĠquÃ¡t": 4169,
      "ĠchÃ©n": 4170,
      "Ãį": 4171,
      "ĠHá»ĵi": 4172,
      "ike": 4173,
      "ĠKiÃªn": 4174,
      "ĠHoáº·c": 4175,
      "bps": 4176,
      "ĠnÃ¡t": 4177,
      "Ġte": 4178,
      "ern": 4179,
      "ĠSai": 4180,
      "Ġled": 4181,
      "Ġkhoai": 4182,
      "ĠxÃŃ": 4183,
      "Ġpháº³ng": 4184,
      "ĠLeague": 4185,
      "Káº¿t": 4186,
      "ock": 4187,
      "áº¥ng": 4188,
      "undai": 4189,
      "MT": 4190,
      "ĠÄĳáº§m": 4191,
      "ont": 4192,
      "Ġquyá»ĥn": 4193,
      "ĠCol": 4194,
      "ĠvÆ°Æ¡n": 4195,
      "ĠKit": 4196,
      "ary": 4197,
      "EC": 4198,
      "ĠkhoÃ¡i": 4199,
      "Ġ55": 4200,
      "ĠTÃ´ng": 4201,
      "ĠGame": 4202,
      "Xem": 4203,
      "eth": 4204,
      "ĠBÄĲS": 4205,
      "Ġmm": 4206,
      "ĠngÆ°": 4207,
      "náº¿u": 4208,
      "Ġlá»©a": 4209,
      "ĠbÄĥn": 4210,
      "ĠMicro": 4211,
      "ĠMá»Ļc": 4212,
      "Ġsofa": 4213,
      "ĠMáº«u": 4214,
      "Ġvisa": 4215,
      "NÃ³i": 4216,
      "Ġhung": 4217,
      "ĠluÃ¢n": 4218,
      "CÃ¢u": 4219,
      "ĠHáº±ng": 4220,
      "ĠCamp": 4221,
      "ĠMV": 4222,
      "ĠCháº³ng": 4223,
      "ram": 4224,
      "Ġnháº¯m": 4225,
      "Ġláº¥p": 4226,
      "Ġgiá»įt": 4227,
      "Ġ06": 4228,
      "ĠgÃ¡nh": 4229,
      "Cáº§n": 4230,
      "ĠTÃ¹ng": 4231,
      "ĠngoÃ¡i": 4232,
      "ĠBao": 4233,
      "Ð½": 4234,
      "cel": 4235,
      "iá»ģng": 4236,
      "Ġ$": 4237,
      "ĠgÅ©i": 4238,
      "Ġ2008": 4239,
      "EAN": 4240,
      "ĠPhÆ°á»£ng": 4241,
      "Ġkáº½": 4242,
      "ĠMÃł": 4243,
      "obile": 4244,
      "ĠVÃ´": 4245,
      "ĠcÃµi": 4246,
      "ĠBHXH": 4247,
      "ĠVÃłng": 4248,
      "Ġláº§u": 4249,
      "ĠCá»Ńu": 4250,
      "Xe": 4251,
      "ĠkhÃ´i": 4252,
      "ĠHa": 4253,
      "ĠchÃª": 4254,
      "ĠTÃº": 4255,
      "ĠNghiÃªn": 4256,
      "ĠÄĳiÃªn": 4257,
      "ner": 4258,
      "LÄĲ": 4259,
      "ĠcÃ¡m": 4260,
      "ĠgÃ¬n": 4261,
      "ĠXuáº¥t": 4262,
      "ĠsÃ¢m": 4263,
      "Ġlá»¡": 4264,
      "??": 4265,
      "AC": 4266,
      "ĠBÃłn": 4267,
      "ĠcÃ´n": 4268,
      "ĠPhilipp": 4269,
      "ree": 4270,
      "Ġváº¥t": 4271,
      "ĠphÃ¢": 4272,
      "ĠhÆ°u": 4273,
      "300": 4274,
      "ĠSc": 4275,
      "VáºŃy": 4276,
      "ĠgiÃ¡n": 4277,
      "TH": 4278,
      "ĠnhÆ°á»£c": 4279,
      "ĠMi": 4280,
      "46": 4281,
      "ĠSEO": 4282,
      "Ġ37": 4283,
      "ĠchÃ¨": 4284,
      "Ġláº¯c": 4285,
      "eal": 4286,
      "Ġao": 4287,
      "¨ng": 4288,
      "__": 4289,
      "ĠphÃ¡o": 4290,
      "86": 4291,
      "ĠmÅ©": 4292,
      "Ġup": 4293,
      "ĠlÃ¢n": 4294,
      "Há»Ļi": 4295,
      "âĢ¢": 4296,
      "mp": 4297,
      "ĠDr": 4298,
      "ĠÃ³c": 4299,
      "ĠvÆ°á»Ľng": 4300,
      "Ġhá»Ł": 4301,
      "coin": 4302,
      "HÃ´m": 4303,
      "ĠnÆ°Æ¡ng": 4304,
      "ĠCá»©": 4305,
      "Ġdáº¯t": 4306,
      "Ġmáº¯m": 4307,
      "Ġhiáº¿u": 4308,
      "LÆ°u": 4309,
      "ÑĤ": 4310,
      "Ġbom": 4311,
      "ĠThá»ķ": 4312,
      "Ġnhá»ĭ": 4313,
      "Ġphanh": 4314,
      "ĠlÃª": 4315,
      "ase": 4316,
      "EL": 4317,
      "Ca": 4318,
      "31": 4319,
      "ĠHar": 4320,
      "ics": 4321,
      "IV": 4322,
      "Ġnhá»©c": 4323,
      "mi": 4324,
      "oan": 4325,
      "ĠdÃ²": 4326,
      "47": 4327,
      "ĠngÃło": 4328,
      "bank": 4329,
      "má»Ļt": 4330,
      "Ġ2009": 4331,
      "ĠTO": 4332,
      "Ġá»Ľt": 4333,
      "Ġhiá»ģn": 4334,
      "eng": 4335,
      "Ġláº¡m": 4336,
      "Ġlá»ģ": 4337,
      "Ġmini": 4338,
      "ĠIS": 4339,
      "ĠMac": 4340,
      "ĠMÃ´n": 4341,
      "ĠHonda": 4342,
      "ĠDa": 4343,
      "va": 4344,
      "we": 4345,
      "Ġtuyáº¿t": 4346,
      "ĠMay": 4347,
      "ĠlÆ°á»¡ng": 4348,
      "ĠrÃł": 4349,
      "Ġham": 4350,
      "Ġ75": 4351,
      "Ġchuá»ĳi": 4352,
      "ta": 4353,
      "Ġkiá»ĩt": 4354,
      "ĠbÆ¡": 4355,
      "ĠlÃ¹i": 4356,
      "kho": 4357,
      "tu": 4358,
      "Ġhoáº¡i": 4359,
      "2011": 4360,
      "sen": 4361,
      "ĠbuÃ´ng": 4362,
      "Ġ2000": 4363,
      "ĠÆ°ng": 4364,
      "Ġ120": 4365,
      "ĠRá»ĵi": 4366,
      "Ġkhoe": 4367,
      "áº¦": 4368,
      "ĠReal": 4369,
      "ĠPhá»ĳ": 4370,
      "ĠÄĳun": 4371,
      "sp": 4372,
      "Ġtiá»ĩm": 4373,
      "ĠQuyá»ģn": 4374,
      "ĠCuá»ĳi": 4375,
      "Chiá»ģu": 4376,
      "Ġkhuy": 4377,
      "ano": 4378,
      "ifi": 4379,
      "ĠGroup": 4380,
      "ĠHS": 4381,
      "ĠdÆ°a": 4382,
      "á»ıa": 4383,
      "PS": 4384,
      "na": 4385,
      "ĠsÃºt": 4386,
      "ĠLá»Ŀi": 4387,
      "Ġdiá»ĩu": 4388,
      "ĠFPT": 4389,
      "Ġnáº¡i": 4390,
      "Ġnang": 4391,
      "ĠtrÄĥng": 4392,
      "Ġad": 4393,
      "Ġ39": 4394,
      "/.": 4395,
      "ĠSá»Ńa": 4396,
      "Ġmá»Ļc": 4397,
      "ĠTrinh": 4398,
      "ĠtÃ¹ng": 4399,
      "Ġlá»Ļn": 4400,
      "ĠVáºŃn": 4401,
      "ĠGold": 4402,
      "ĠghÃ©t": 4403,
      "BÃł": 4404,
      "Ġvs": 4405,
      "á»¥p": 4406,
      "UBND": 4407,
      "ĠTháº©m": 4408,
      "Ġquá»·": 4409,
      "ĠSony": 4410,
      "Ġthá»ĭnh": 4411,
      "Ġá»ĳp": 4412,
      "Ġrá»Ļn": 4413,
      "ĠFl": 4414,
      "ĠtÆ¡": 4415,
      "ĠTop": 4416,
      "Ñģ": 4417,
      "Ġláº·p": 4418,
      "ÑĢ": 4419,
      "Ġdai": 4420,
      "Ġqui": 4421,
      "Ġ34": 4422,
      "áº·m": 4423,
      "arden": 4424,
      "Ġkeo": 4425,
      "Ġcai": 4426,
      "ĠSÃ¡ch": 4427,
      "ĠNhÆ¡n": 4428,
      "soft": 4429,
      "ana": 4430,
      "Ġme": 4431,
      "min": 4432,
      "onesia": 4433,
      "ĠgÃ£": 4434,
      "ĠLÃ£nh": 4435,
      "IA": 4436,
      "Ġthun": 4437,
      "ĠTN": 4438,
      "ðŁ": 4439,
      "Tag": 4440,
      "LÃłm": 4441,
      "ĠTráº»": 4442,
      "Qua": 4443,
      "Ġtá»Ľ": 4444,
      "ĠOr": 4445,
      "ĠMiá»ģn": 4446,
      "Ġ600": 4447,
      "Ġrá»ī": 4448,
      "Khu": 4449,
      "Ġváº¡ch": 4450,
      "ĠKiáº¿m": 4451,
      "âĢĭ": 4452,
      "ĠbÃ´": 4453,
      "YT": 4454,
      "ĠnhÃ£": 4455,
      "ĠSyria": 4456,
      "ĠchiÃªm": 4457,
      "Ġ65": 4458,
      "tre": 4459,
      "ĠVinhomes": 4460,
      "ĠToy": 4461,
      "Ġhttps": 4462,
      "aster": 4463,
      "Ġcháº©n": 4464,
      "ĠCáº©m": 4465,
      "ĠhÃ²n": 4466,
      "ĠASEAN": 4467,
      "ĠNa": 4468,
      "ĠhoÃłi": 4469,
      "ĠCÃł": 4470,
      "Ġngoan": 4471,
      "ĠIt": 4472,
      "Ġtá»ıi": 4473,
      "ĠQU": 4474,
      "GS": 4475,
      "ĠPC": 4476,
      "ĠNháºŃn": 4477,
      "ĠrÃ¡p": 4478,
      "Ġthuáº«n": 4479,
      "reen": 4480,
      "Ġprotein": 4481,
      "gon": 4482,
      "ÄĲÃ³": 4483,
      "ĠMÃłu": 4484,
      "mar": 4485,
      "ĠlÃ¹ng": 4486,
      "Ġ33": 4487,
      "KH": 4488,
      "NhÃ¢n": 4489,
      "Ġngáº§n": 4490,
      "Ġthoáº£ng": 4491,
      "Ġgiang": 4492,
      "ĠCal": 4493,
      "ustr": 4494,
      "iew": 4495,
      "ĠHiá»ģn": 4496,
      "ĠÄĳáº¯n": 4497,
      "ĠHÄĲND": 4498,
      "ĠCA": 4499,
      "Ġbar": 4500,
      "ĠÄĳÃ¹a": 4501,
      "Ġruá»Ļng": 4502,
      "Ġbá»ıng": 4503,
      "phcm": 4504,
      "uchia": 4505,
      "ĠtÃ¡m": 4506,
      "Ð¾Ð": 4507,
      "Ġbá»ī": 4508,
      "ĠsÆ°ng": 4509,
      ".[": 4510,
      "Ġkiáº¿p": 4511,
      "âĢ¦âĢ¦âĢ¦âĢ¦": 4512,
      "Ġdá»ĳc": 4513,
      "ĠFr": 4514,
      "Ġ07": 4515,
      "ime": 4516,
      "Ġngá»£i": 4517,
      "ĠtÃ¢": 4518,
      "ĠSiÃªu": 4519,
      "ĠdáºŃp": 4520,
      "ĠGiá»Ŀ": 4521,
      "ĠgiÆ¡": 4522,
      "Ġxá»ī": 4523,
      "ĠHá»Ĺ": 4524,
      "pt": 4525,
      "Ġtriáº¿t": 4526,
      "Viet": 4527,
      "ĠÄĲáº£o": 4528,
      "pe": 4529,
      "ĠTuyáº¿t": 4530,
      "ĠÃ¢u": 4531,
      "ĠBu": 4532,
      "Ġtivi": 4533,
      "www": 4534,
      "ona": 4535,
      "ĠmÄĥng": 4536,
      "LiÃªn": 4537,
      "ĠCáº¥p": 4538,
      "ĠSH": 4539,
      "ĠÃģnh": 4540,
      "ĠTÃ¡c": 4541,
      "ĠmÃłi": 4542,
      "ĠPhÃ¢n": 4543,
      "Ġ250": 4544,
      "Ġngá»¥": 4545,
      "ohn": 4546,
      "PhÃ¡t": 4547,
      "Ã¹n": 4548,
      "ĠTáº§n": 4549,
      "ĠTrÃ¡i": 4550,
      "ĠlÃ©o": 4551,
      "ĠxÃ¡": 4552,
      "act": 4553,
      "ĠdÃ£y": 4554,
      "ĠnghiÃªng": 4555,
      "ĠmuÃ´n": 4556,
      "edia": 4557,
      "Dá»ĭch": 4558,
      "ĠKÃŃch": 4559,
      "Ġxoa": 4560,
      "ĠkhoÃ¡": 4561,
      "ĠÄĲáº¿": 4562,
      "ĠÃģo": 4563,
      "ĠxÃł": 4564,
      "ĠMad": 4565,
      "Ġnguyá»ĩt": 4566,
      "Nam": 4567,
      "ĠCÃ¢y": 4568,
      "Ġnhang": 4569,
      "LÃºc": 4570,
      "arao": 4571,
      "ĠtÆ°á»Ľi": 4572,
      "ĠHáº§u": 4573,
      "Ġhá»¥": 4574,
      "ÃĬN": 4575,
      "ĠÄĲiá»ģn": 4576,
      "ĠBang": 4577,
      "Ġgai": 4578,
      "Ġlogo": 4579,
      "Ġrá»¥ng": 4580,
      "ĠTÃŃn": 4581,
      "Tiáº¿p": 4582,
      "Ġcá»§ng": 4583,
      "ĠNhÃ¬n": 4584,
      "ĠTá»·": 4585,
      "ĠRo": 4586,
      "book": 4587,
      "Ġ48": 4588,
      "Ã½t": 4589,
      "ĠkhÃ©p": 4590,
      "Há»ĩ": 4591,
      "ĠQuÃ¡n": 4592,
      "ĠThÃ¡p": 4593,
      "enz": 4594,
      "ek": 4595,
      "ĠMo": 4596,
      "ĠchÃªnh": 4597,
      "ign": 4598,
      "ĠTháº¥t": 4599,
      "Ġbong": 4600,
      "ĠXanh": 4601,
      "ĠphÃ´": 4602,
      "Ġblog": 4603,
      "Ġnhá»ī": 4604,
      "ĠParis": 4605,
      "Ġchay": 4606,
      "Ġká»ī": 4607,
      "Ġrá»ĳt": 4608,
      "ĠGu": 4609,
      "Ġmáº·n": 4610,
      "Pháº§n": 4611,
      "ĠHyundai": 4612,
      "Ġtráº¯c": 4613,
      "ĠÄĳc": 4614,
      "Ġmarketing": 4615,
      "ĠIndonesia": 4616,
      "Ġman": 4617,
      "ene": 4618,
      "FF": 4619,
      "ĠMer": 4620,
      "ĠFord": 4621,
      "Ġ197": 4622,
      "ĠPhá»§": 4623,
      "ĠlÆ°á»Ŀng": 4624,
      "ÄĲáº§u": 4625,
      "ĠbÃ¹ng": 4626,
      "Ġlá»įt": 4627,
      "Ġchá»Ń": 4628,
      "199": 4629,
      "ĠCá»ĳ": 4630,
      "ĠláºŃu": 4631,
      "Ġnáº£y": 4632,
      "ĠChr": 4633,
      "he": 4634,
      "Ġ320": 4635,
      "Ġmáº¡": 4636,
      "ale": 4637,
      "ThÃłnh": 4638,
      "Ġtá»ĭnh": 4639,
      "ĠrÃ¨m": 4640,
      "ĠkÃ¨o": 4641,
      "ĠchuÃ´ng": 4642,
      "ĠLáºŃp": 4643,
      "Bá»ĩnh": 4644,
      "Æ¯u": 4645,
      "ĠOne": 4646,
      "ĠÄĳáº±ng": 4647,
      "kin": 4648,
      "Ġxá»ķ": 4649,
      "TN": 4650,
      "Cuá»Ļc": 4651,
      "Ġtro": 4652,
      "ĠXuyÃªn": 4653,
      "uong": 4654,
      "vÃł": 4655,
      "Ġchá»£t": 4656,
      "ĠrÃ´": 4657,
      "Ġsá»ī": 4658,
      "ĠTháºŃm": 4659,
      "Ġngá»©a": 4660,
      "59": 4661,
      "Ġve": 4662,
      "ĠVáºŃt": 4663,
      "ero": 4664,
      "ĠmÆ°á»£n": 4665,
      "Ġbá»Ļi": 4666,
      "Ġdá»ĳi": 4667,
      "á»Ĭ": 4668,
      "ĠÄĳáº·n": 4669,
      "Pad": 4670,
      "Ġyáº¿t": 4671,
      "ĠmÃ¨o": 4672,
      "ĠnÃ©m": 4673,
      "ĠLÄĥng": 4674,
      "ĠVá»«a": 4675,
      "ĠToyota": 4676,
      "araoke": 4677,
      "ĠTáº¿": 4678,
      "ire": 4679,
      "ĠcÆ°á»¡ng": 4680,
      "ĠNghiá»ĩp": 4681,
      "MÃ¬nh": 4682,
      "QT": 4683,
      "uat": 4684,
      "Ġmá»ı": 4685,
      "QuÃ½": 4686,
      "á»ĺ": 4687,
      "Ġbuá»ĵng": 4688,
      "ĠBáº£ng": 4689,
      "Ġcuá»Ļn": 4690,
      "ĠxÃło": 4691,
      "ĠPhilippines": 4692,
      "64": 4693,
      "Ġfull": 4694,
      "ĠCO": 4695,
      "ĠBay": 4696,
      "Ġlá»į": 4697,
      "Ġráº¯c": 4698,
      "ĠMÃ´": 4699,
      "giá»": 4700,
      "ĠláºŃt": 4701,
      "Ġbáº¥y": 4702,
      "Ġcáº¯p": 4703,
      "Ġ2007": 4704,
      "ĠDe": 4705,
      "ĠgiÃłn": 4706,
      "ĠCT": 4707,
      "Ġdáº»o": 4708,
      "Ġcá»ĵn": 4709,
      "Ġláº¥n": 4710,
      "ĠvÃ²i": 4711,
      "atch": 4712,
      "Ġbai": 4713,
      "ĠChá»£": 4714,
      "Ġcar": 4715,
      "Ġcáº¯n": 4716,
      "Video": 4717,
      "Ġkhá»Ń": 4718,
      "Ġrá»ĵng": 4719,
      "CB": 4720,
      "Ġdá»ĵi": 4721,
      "ĠmÃ²": 4722,
      "sub": 4723,
      "ĠÄĲáº¡t": 4724,
      "Ġná»ĳt": 4725,
      "Ġnghá»ĭch": 4726,
      "ĠÄĳÃłnh": 4727,
      "ä¸": 4728,
      "ĠCai": 4729,
      "Ġ64": 4730,
      "ĠvÃ³c": 4731,
      "ĠvÃ¢y": 4732,
      "ĠTM": 4733,
      "ĠCampuchia": 4734,
      "ĠLá»ĩ": 4735,
      "ĠmÆ°á»£t": 4736,
      "ĠSch": 4737,
      "ĠMÃ¹a": 4738,
      "ĠthÃ¨m": 4739,
      "ley": 4740,
      "ĠBáº¡c": 4741,
      "ĠhÃ¡i": 4742,
      "Ġthuá»·": 4743,
      "ĠKitÃ´": 4744,
      "ĠThá»«a": 4745,
      "EN": 4746,
      "ĠEn": 4747,
      "Ġsuá»ĳi": 4748,
      "uyÃª": 4749,
      "gr": 4750,
      "Ġ99": 4751,
      "ĠhÃ²": 4752,
      "ĠngÆ°ng": 4753,
      "ĠYork": 4754,
      "ĠthÃ¬a": 4755,
      "ĠngÃ´": 4756,
      "Ġmo": 4757,
      "ĠAng": 4758,
      "ux": 4759,
      "ĠcÃłnh": 4760,
      "Ġrá»ħ": 4761,
      "áº¿m": 4762,
      "ĠÄĤn": 4763,
      "ĠthÆ°a": 4764,
      "itcoin": 4765,
      "Ġuá»ĳn": 4766,
      "ĠÄĳiá»ģn": 4767,
      "ĠVáº¥n": 4768,
      "ĠInter": 4769,
      "áº¿ch": 4770,
      "ĠhÆ°ng": 4771,
      "Ãºm": 4772,
      "ĠCen": 4773,
      "ĠÄĲáº¯k": 4774,
      "Ġ198": 4775,
      "ĠchÃ¬a": 4776,
      "ĠTáº¡o": 4777,
      "ĠMod": 4778,
      "ĠnÃ´n": 4779,
      "ĠbÃ³p": 4780,
      "Ġpho": 4781,
      "ĠThÃªm": 4782,
      "ĠHuá»ĩ": 4783,
      "ĠMÆ°á»Ŀi": 4784,
      "áº»m": 4785,
      "ĠmÃ¢u": 4786,
      "CD": 4787,
      "ize": 4788,
      "ĠTáº£i": 4789,
      "ĠChá»©ng": 4790,
      "ĠÄĲá»įc": 4791,
      "ĠDiá»ĩp": 4792,
      "ions": 4793,
      "TX": 4794,
      "ĠSÃ´ng": 4795,
      "ert": 4796,
      "ĠthiÃª": 4797,
      "ĠhÆ¡": 4798,
      "Ġlung": 4799,
      "ĠChá»©c": 4800,
      "63": 4801,
      "ĠPrem": 4802,
      "Ġfacebook": 4803,
      "etro": 4804,
      "less": 4805,
      "cÃ¡c": 4806,
      "Ġviá»ģn": 4807,
      "Ġ1000": 4808,
      "2010": 4809,
      ".,": 4810,
      "ĠÄĳáº¯ng": 4811,
      "ĠxÃŃch": 4812,
      "bao": 4813,
      "sea": 4814,
      "Ġsá»ĳc": 4815,
      "ĠHiáº¿u": 4816,
      "Ġgas": 4817,
      "ĠYáº¿n": 4818,
      "ayl": 4819,
      "US": 4820,
      "ÄĤ": 4821,
      "Ġná»©t": 4822,
      "ĠlÆ°á»Ľt": 4823,
      "Ã¯": 4824,
      "ĠGarden": 4825,
      "ĠBÃ¡t": 4826,
      "54": 4827,
      "ĠMau": 4828,
      "ĠÆ¯": 4829,
      "nhÆ°": 4830,
      "á»°": 4831,
      "Ġxen": 4832,
      "Ġgá»ĳm": 4833,
      "ola": 4834,
      "ĠKá»·": 4835,
      "Ġngá»Ļt": 4836,
      "Ġrun": 4837,
      "che": 4838,
      "ĠPan": 4839,
      "Chá»ĭ": 4840,
      "ĠBÃ¡": 4841,
      "ĠNÄĥng": 4842,
      "Ban": 4843,
      "ĠMax": 4844,
      "Ġtoa": 4845,
      "BÃ¬nh": 4846,
      "ĠÄĳáº¡m": 4847,
      "ChÃło": 4848,
      "ĠNguá»ĵn": 4849,
      "oly": 4850,
      "ĠHotline": 4851,
      "ĠKhai": 4852,
      "ĠsÃ©t": 4853,
      "ĠLáº§n": 4854,
      "onald": 4855,
      "MB": 4856,
      "ĠRivers": 4857,
      "HÃ¬nh": 4858,
      "ĠLH": 4859,
      "Ġnu": 4860,
      "ĠÄĳá»Ľi": 4861,
      "ĠxÃ¡m": 4862,
      "á»ĩn": 4863,
      "Viá»ĩt": 4864,
      "Ġthá»īnh": 4865,
      "iano": 4866,
      "eck": 4867,
      "ĠtÃł": 4868,
      "ĠÄĲÃłn": 4869,
      "Ãĵ": 4870,
      "Ġcuá»ĵng": 4871,
      "Ġnghiá»ĩn": 4872,
      "Ġmp": 4873,
      "ĠLiÃªm": 4874,
      "chi": 4875,
      "ĠJohn": 4876,
      "IT": 4877,
      "ĠÄĳáº¿m": 4878,
      "Ġnhá»Ł": 4879,
      "ĠmÄĥ": 4880,
      "Ġráº¡ng": 4881,
      "ÃĮ": 4882,
      "ĠChá»įn": 4883,
      "bon": 4884,
      "Ġmanh": 4885,
      "ĠkiÃªng": 4886,
      "ĠmÃºa": 4887,
      "org": 4888,
      "ĠHP": 4889,
      "ct": 4890,
      "ĠdÅ©ng": 4891,
      "DA": 4892,
      "ĠPhÃ¹ng": 4893,
      "Ġluá»ĵng": 4894,
      "ĠxÄĥm": 4895,
      "ĠGS": 4896,
      "ĠÃ´tÃ´": 4897,
      "Ġ;": 4898,
      "ĠIII": 4899,
      "ĠÄĲan": 4900,
      "Ġ800": 4901,
      "Ġtrinh": 4902,
      "lymp": 4903,
      "Ġdá»ĵn": 4904,
      "ÄĲÆ°á»Ŀng": 4905,
      "NháºŃn": 4906,
      "ĠÄĳáº¡c": 4907,
      "ason": 4908,
      "Äģ": 4909,
      "enc": 4910,
      "Xin": 4911,
      "ĠTruyá»ĩn": 4912,
      "ĠCháº¯c": 4913,
      "wer": 4914,
      "Ġhá»¥t": 4915,
      "Má»Ľi": 4916,
      "press": 4917,
      "ames": 4918,
      "ĠRiÃªng": 4919,
      "ĠTre": 4920,
      "Ġviet": 4921,
      "ĠTÆ°á»Ŀng": 4922,
      "Má»įi": 4923,
      "let": 4924,
      "ĠHÃłm": 4925,
      "ĠQuáº£": 4926,
      "eu": 4927,
      "ĠthiÃªng": 4928,
      "ĠxÆ°ng": 4929,
      "CÆ¡": 4930,
      "ĠRob": 4931,
      "Ġgu": 4932,
      "Ġdáº£i": 4933,
      "Ġlui": 4934,
      "Ġtaxi": 4935,
      "Ġ<": 4936,
      "ĠChiáº¿c": 4937,
      "ĠtrÄ©": 4938,
      "ence": 4939,
      "./.": 4940,
      "ĠkÃ©p": 4941,
      "Ġkhoáº£nh": 4942,
      "Sá»Ł": 4943,
      "ĠVáº¡n": 4944,
      "dr": 4945,
      "Ġtphcm": 4946,
      "ĠQuá»¹": 4947,
      "ĠÄĳinh": 4948,
      "Ġkhiáº¿t": 4949,
      "ĠNo": 4950,
      "ĠthÃ¡m": 4951,
      "ĠTHCS": 4952,
      "Ġview": 4953,
      "ĠtrÆ¡": 4954,
      "ĠTá»©": 4955,
      "Ġvá»Ł": 4956,
      "ĠSá»©c": 4957,
      "ĠBá»ĭ": 4958,
      "ĠCÃ¡": 4959,
      "!\"": 4960,
      "Thá»§": 4961,
      "iel": 4962,
      "Cá»¥": 4963,
      "Ġcollagen": 4964,
      "Ġchip": 4965,
      "TB": 4966,
      "á»¤": 4967,
      "ieu": 4968,
      "ĠnÆ°Æ¡": 4969,
      "Ġ49": 4970,
      "ĠKhang": 4971,
      "tra": 4972,
      "EA": 4973,
      "Tin": 4974,
      "Ta": 4975,
      "SN": 4976,
      "Ġbáº¿": 4977,
      "Há»įc": 4978,
      "ĠPal": 4979,
      "Giáº£i": 4980,
      "Ġcont": 4981,
      ",..": 4982,
      "áº¤T": 4983,
      "ka": 4984,
      "Ġcá»įc": 4985,
      "ĠPhÃ¹": 4986,
      "Ġnhá»¥c": 4987,
      "Ġngá»±": 4988,
      "ĠÄĳá»©t": 4989,
      "Ġrá»ĩt": 4990,
      "ĠnhÃŃ": 4991,
      "ĠTranh": 4992,
      "ĠÄĲiá»ĥn": 4993,
      "KhÃ¡ch": 4994,
      "62": 4995,
      "ĠVua": 4996,
      "ĠxÃ´i": 4997,
      "ĠbÃ¡ch": 4998,
      "Ġfl": 4999,
      "Ġkhoang": 5000,
      "ĠkiÃª": 5001,
      "li": 5002,
      "ĠEU": 5003,
      "ĠKÃŃnh": 5004,
      "okia": 5005,
      "ĠgÃµ": 5006,
      "MS": 5007,
      "Ġdá»Ł": 5008,
      "lÃłm": 5009,
      "ĠNgÅ©": 5010,
      "ĠhÃª": 5011,
      "Ġtrá»«ng": 5012,
      "ti": 5013,
      "Ġá»¨ng": 5014,
      "Kho": 5015,
      "ĠLá»±c": 5016,
      "ĠTÃ¹y": 5017,
      "ĠThiá»ģn": 5018,
      "Ġhotline": 5019,
      "TÃ¬nh": 5020,
      "ĠÄĳÃŃnh": 5021,
      "ĠThuá»ĳc": 5022,
      "Thanh": 5023,
      "ĠMon": 5024,
      "ĠÄĲáº·t": 5025,
      "ĠMicrosoft": 5026,
      "ifone": 5027,
      "ĠbÃ¹n": 5028,
      "ĠBi": 5029,
      "ĠOlymp": 5030,
      "Ġchá»ĳn": 5031,
      "earl": 5032,
      "Ġháº¡ch": 5033,
      "á»¥a": 5034,
      "ĠgÃ£y": 5035,
      "An": 5036,
      "Ġtáº¡": 5037,
      "ĠÄĳá»¥ng": 5038,
      "400": 5039,
      "ĠchÃ¡o": 5040,
      "Ġhat": 5041,
      "ĠViá»ħn": 5042,
      "ĠSeo": 5043,
      "Ġcanxi": 5044,
      "Ġcáº¡n": 5045,
      "Ġre": 5046,
      "Ġdáº¡i": 5047,
      "Ġtáº£n": 5048,
      "ĠlÅ©y": 5049,
      "Ġtru": 5050,
      "ext": 5051,
      "ĠsÃ¡p": 5052,
      "ĠxÃ³t": 5053,
      "elsea": 5054,
      "ĠsÆ°á»Ŀn": 5055,
      "hoáº·c": 5056,
      "ĠBÃ¡ch": 5057,
      "ĠThá»©c": 5058,
      "á»Ńng": 5059,
      "Má»¹": 5060,
      "ĠLá»Ļ": 5061,
      "NhÃ¬n": 5062,
      "ĠÆ°": 5063,
      "NguyÃªn": 5064,
      "Ġcháº·ng": 5065,
      "ji": 5066,
      "ere": 5067,
      "Ġgá»«ng": 5068,
      "Ġcá»±": 5069,
      "ĠChuyá»ĥn": 5070,
      "ĠThÃºy": 5071,
      "ĠhoÃłnh": 5072,
      "ĠSup": 5073,
      "PhÃ²ng": 5074,
      "ĠGiai": 5075,
      "âĢĶ": 5076,
      "ĠDiá»ĩu": 5077,
      "Ġgo": 5078,
      "udio": 5079,
      "ĠtÃ³m": 5080,
      "ĠTÆ°Æ¡ng": 5081,
      "Ġdá»ĩt": 5082,
      "Ġres": 5083,
      "Ġdá»Ļi": 5084,
      "ĠÄĳá»įng": 5085,
      "Ġgá»ī": 5086,
      "ĠGiÃ¡p": 5087,
      "ced": 5088,
      "ĠkiÃªm": 5089,
      "ĠrÃ¡o": 5090,
      "tá»«": 5091,
      "ĠHoÃł": 5092,
      "Ġá»ĳm": 5093,
      "ĠkhÆ¡i": 5094,
      "ĠÄĳá»¥c": 5095,
      "Ġ2006": 5096,
      "ĠLáº¡i": 5097,
      "vent": 5098,
      "Ġbáº¡t": 5099,
      "ThÃ¡ng": 5100,
      "ĠTrÃ¬nh": 5101,
      "Ba": 5102,
      "Iáº¾": 5103,
      "Ľt": 5104,
      "Ġcá»Łi": 5105,
      "AG": 5106,
      "ĠMU": 5107,
      "ita": 5108,
      "ĠgiÃ²n": 5109,
      "ĠDÃ²ng": 5110,
      "Ġ42": 5111,
      "MP": 5112,
      "ĠÄĳan": 5113,
      "Ġ47": 5114,
      "ĠAP": 5115,
      "ĠsÃºc": 5116,
      "ĠGáº§n": 5117,
      "ĠNgÃ£i": 5118,
      "TáºŃp": 5119,
      "ĠCÄĲ": 5120,
      "OR": 5121,
      "ĠFor": 5122,
      "ĠlÃ¢": 5123,
      "ĠAustr": 5124,
      "itar": 5125,
      "ĠSÃ¡u": 5126,
      "ower": 5127,
      "igh": 5128,
      "ĠmÃ£nh": 5129,
      "ĠcÃºi": 5130,
      "áºłI": 5131,
      "Ná»Ļi": 5132,
      "ĠCáºŃp": 5133,
      "ĠÄĲÃ´i": 5134,
      "ĠÃło": 5135,
      "Ġki": 5136,
      "agon": 5137,
      "ler": 5138,
      "Lu": 5139,
      "ĠTrÃ¬": 5140,
      "Ġdáº¹p": 5141,
      "ĠXi": 5142,
      "42": 5143,
      "Gia": 5144,
      "Ġeo": 5145,
      "ital": 5146,
      "ĠHiáº¿n": 5147,
      "57": 5148,
      "Ġná»į": 5149,
      "Â»": 5150,
      "Ġchá»Ńi": 5151,
      "ĠSky": 5152,
      "gia": 5153,
      "ĠNote": 5154,
      "Ġis": 5155,
      "ĠbÃ£": 5156,
      "Ġxao": 5157,
      "ĠMáºŃu": 5158,
      "43": 5159,
      "Ġni": 5160,
      "Ġráº½": 5161,
      "ĠvÃłnh": 5162,
      "port": 5163,
      "Ãºn": 5164,
      "DC": 5165,
      "ĠLÆ°á»£ng": 5166,
      "ĠNghi": 5167,
      "ĠvÆ°á»£ng": 5168,
      "800": 5169,
      "ĠChiá»ģu": 5170,
      "cho": 5171,
      "ĠComp": 5172,
      "ĠrÃ¢": 5173,
      "INH": 5174,
      "ĠÄĳáº¯m": 5175,
      "ĠTÆ°á»Ľng": 5176,
      "ĠHe": 5177,
      "ĠiPad": 5178,
      "ĠxÆ°á»Ľc": 5179,
      "ĠSen": 5180,
      "Ġphe": 5181,
      "Ġquáº§y": 5182,
      "ĠLand": 5183,
      "ĠnÃ¡ch": 5184,
      "Nguyá»ħn": 5185,
      "ĠBÃŃch": 5186,
      "ĠÄĲÃ¡nh": 5187,
      "ĠDV": 5188,
      "Ġgáº¯t": 5189,
      "Mua": 5190,
      "ane": 5191,
      "Ġky": 5192,
      "ĠChÆ°a": 5193,
      "ĠXÃ´": 5194,
      "HÆ¡n": 5195,
      "ĠOff": 5196,
      "ĠquÃ£ng": 5197,
      "Máº·t": 5198,
      "Ġmáº¹o": 5199,
      "cr": 5200,
      "Báº£n": 5201,
      "RO": 5202,
      "Â¯": 5203,
      "Ġle": 5204,
      "Kinh": 5205,
      "ĠbÃ¡u": 5206,
      "Tham": 5207,
      "Cuá»ĳi": 5208,
      "ari": 5209,
      "ĠHi": 5210,
      "58": 5211,
      "Ġq": 5212,
      "ĠBÆ°á»Ľc": 5213,
      "BÃ¡o": 5214,
      "Ġ2005": 5215,
      "Ġkaraoke": 5216,
      "Ġxoáº¯n": 5217,
      "ĠchÃ¢": 5218,
      "Ġby": 5219,
      "ÄĲÃ£": 5220,
      "Ġhá»ĳ": 5221,
      "ĠTA": 5222,
      "ĠEuro": 5223,
      "ĠChelsea": 5224,
      "ĠHÃĢ": 5225,
      "ki": 5226,
      "Ġuá»·": 5227,
      "ya": 5228,
      "600": 5229,
      "Ġgolf": 5230,
      "ĠTai": 5231,
      "Ġcá»į": 5232,
      "Ġbá»ĵ": 5233,
      "Ġgáº¡t": 5234,
      "ĠMarketing": 5235,
      "ĠNÃłng": 5236,
      "ĠSaigon": 5237,
      "ĠPhá»¥c": 5238,
      "ĠCamera": 5239,
      "Chi": 5240,
      "Ġkhá»ĳng": 5241,
      "Ġloi": 5242,
      "ĠKhÃª": 5243,
      "ĠStar": 5244,
      "Ġwww": 5245,
      "Sá»Ń": 5246,
      "Ġdáº·n": 5247,
      "ĠphÃ¬": 5248,
      "mail": 5249,
      "ĠBÃ¢y": 5250,
      "ĠLG": 5251,
      "MÃ´": 5252,
      "ger": 5253,
      "ĠVal": 5254,
      "á»Ľn": 5255,
      "ĠnghiÃª": 5256,
      "Ġvá»ĭt": 5257,
      "Ġgay": 5258,
      "Thay": 5259,
      "ĠWebsite": 5260,
      "ann": 5261,
      "Ġtá»³": 5262,
      "TháºŃt": 5263,
      "Thu": 5264,
      "CÃ¡i": 5265,
      "ĠBÃ©": 5266,
      "ĠBlack": 5267,
      "ĠFull": 5268,
      "ĠXS": 5269,
      "ĠÄĳÄĥ": 5270,
      "ĠbÃłng": 5271,
      "ĠMÃłn": 5272,
      "ĠvÃ¡n": 5273,
      "be": 5274,
      "The": 5275,
      "ise": 5276,
      "hip": 5277,
      "ĠMobile": 5278,
      "Ġsi": 5279,
      "ĠgÃłng": 5280,
      "ĠSte": 5281,
      "ĠCháº¿": 5282,
      "lines": 5283,
      "ĠÄĳÃ¹i": 5284,
      "ĠTá»ĭnh": 5285,
      "224": 5286,
      "Ġvoi": 5287,
      "ega": 5288,
      "ĠViÃª": 5289,
      "ĠGÃ²": 5290,
      "Ġstr": 5291,
      "Ġnhá»Ŀn": 5292,
      "lu": 5293,
      "ance": 5294,
      "tin": 5295,
      "ĠCB": 5296,
      "ode": 5297,
      "otor": 5298,
      "TVT": 5299,
      "ĠChamp": 5300,
      "Ġoff": 5301,
      "Ãļ": 5302,
      "78": 5303,
      "41": 5304,
      "Ġacid": 5305,
      "Ġ95": 5306,
      "ĠLiÃªu": 5307,
      "61": 5308,
      "Ġ00": 5309,
      "Ġ43": 5310,
      "ĠHáº¯n": 5311,
      "ĠAustralia": 5312,
      "].": 5313,
      "ura": 5314,
      "ĠGh": 5315,
      "TÃ¬m": 5316,
      "ĠTá»ĳt": 5317,
      "Tags": 5318,
      "ĠtrÃ¢u": 5319,
      "Sá»ĳ": 5320,
      "ĠtrÃ¹m": 5321,
      "ĠTuá»ķi": 5322,
      "low": 5323,
      "Ġthon": 5324,
      "FA": 5325,
      "...]": 5326,
      "Ġvá»ī": 5327,
      "ÃĤN": 5328,
      "ĠSal": 5329,
      "Ġ700": 5330,
      "Ġdong": 5331,
      "Ġá»§": 5332,
      "Ġngáº¡ch": 5333,
      "ĠVideo": 5334,
      "Ġá»§i": 5335,
      "Hoa": 5336,
      "Ġke": 5337,
      "Tui": 5338,
      "ĠChÃº": 5339,
      "ited": 5340,
      "Ìģ,": 5341,
      "erry": 5342,
      "Ġnhá»ĭn": 5343,
      "ĠGiÃºp": 5344,
      "col": 5345,
      "azil": 5346,
      "ĠlÆ°": 5347,
      "ĠMobifone": 5348,
      "ĠKÃ½": 5349,
      "ĠMadrid": 5350,
      "ÃĿ": 5351,
      "ĠÄĲÃ¡": 5352,
      "KT": 5353,
      "ĠSam": 5354,
      "Ġtui": 5355,
      "ĠWh": 5356,
      "ÄĲiá»ĥm": 5357,
      "PhÆ°Æ¡ng": 5358,
      "ĠBo": 5359,
      "ĠCty": 5360,
      "ĠViáº¿t": 5361,
      "ĠtrÃ¡n": 5362,
      "Ġtrá»ħ": 5363,
      "ĠOb": 5364,
      "ĠgÃ¡c": 5365,
      "ĠBV": 5366,
      "Bank": 5367,
      "ĠÄĲáº¥ng": 5368,
      "ĠrÃ¢u": 5369,
      "ĠNews": 5370,
      "ĠlÆ°Æ¡": 5371,
      "Ġuáº¥t": 5372,
      "di": 5373,
      "icon": 5374,
      "ĠtÃ²": 5375,
      "Ġkáº¹o": 5376,
      "Ġngá»¥c": 5377,
      "PP": 5378,
      "Ġdá»Ĺ": 5379,
      "ĠVill": 5380,
      "Ġlá»ĳp": 5381,
      "Ġ85": 5382,
      "Ġyáº¿n": 5383,
      "Ġnhá»Ļn": 5384,
      "ĠCÆ°": 5385,
      "ĠYou": 5386,
      "ĠngÃ¢y": 5387,
      "ĠÄĳÃ²n": 5388,
      "ĠRiverside": 5389,
      "ĠNhÄ©": 5390,
      "Ġlá»¥a": 5391,
      "ChuyÃªn": 5392,
      "ĠBÃ³ng": 5393,
      "ĠHÃ£ng": 5394,
      "ĠNS": 5395,
      "ena": 5396,
      "ĠBá»ĳ": 5397,
      "Ġkhuáº¥t": 5398,
      "Ġbá»įt": 5399,
      "ĠMe": 5400,
      "ĠdÃª": 5401,
      "ooth": 5402,
      "chá»ī": 5403,
      "ĠMuá»ĳn": 5404,
      "Le": 5405,
      "Ġháº»m": 5406,
      "ĠKháº£": 5407,
      "wit": 5408,
      "Ġlen": 5409,
      "kr": 5410,
      "ĠTour": 5411,
      "¯a": 5412,
      "ĠhÃŃt": 5413,
      "TÃŃnh": 5414,
      "lin": 5415,
      "ĠTrÃºc": 5416,
      "room": 5417,
      "Ġxáº¯n": 5418,
      "ĠdÃło": 5419,
      "ĠbÄĥ": 5420,
      "Ġkáº¹t": 5421,
      "oáº¡n": 5422,
      "Ġvo": 5423,
      "ute": 5424,
      "ĠQuÃ¡": 5425,
      "áº¢nh": 5426,
      "AL": 5427,
      "ĠDonald": 5428,
      "Ġlanh": 5429,
      "gh": 5430,
      "ĠVP": 5431,
      "2009": 5432,
      "isa": 5433,
      "ĠBHYT": 5434,
      "ĠkhÃŃa": 5435,
      "Ġvuá»ĳt": 5436,
      "ts": 5437,
      "Ġrang": 5438,
      "Vá»ĭ": 5439,
      "ĠKhoáº£n": 5440,
      "ĠMáº¡c": 5441,
      "ĠxÃ¬": 5442,
      "ery": 5443,
      "Ġláº·n": 5444,
      "EM": 5445,
      "ĠÃ¡": 5446,
      "ĠcháºŃt": 5447,
      "MÃ¹a": 5448,
      "uck": 5449,
      "ĠlÃ¡nh": 5450,
      "ĠVá»ĩ": 5451,
      "ĠMá»©c": 5452,
      "Ġau": 5453,
      "Ġyou": 5454,
      "cÃ´ng": 5455,
      "Cua": 5456,
      "ĠMáº¡ng": 5457,
      "ĠBiá»ĩt": 5458,
      "AI": 5459,
      "ĠchÃł": 5460,
      "QG": 5461,
      "ĠgáºŃt": 5462,
      "ĠKiá»ĩt": 5463,
      "Ġnhá»įn": 5464,
      "ĠÄĳÃ£ng": 5465,
      "ĠtÃº": 5466,
      "ĠTáº¡p": 5467,
      "ĠbÆ°u": 5468,
      "ĠCap": 5469,
      "ĠTráº¡ch": 5470,
      "2008": 5471,
      "Ġmodel": 5472,
      "Ġxá»ĭt": 5473,
      "ĠBáº£y": 5474,
      "oss": 5475,
      "album": 5476,
      "BTC": 5477,
      "aza": 5478,
      "ĠCá»§a": 5479,
      "ĠHang": 5480,
      "Ġlá»Ł": 5481,
      "ĠVÃĢ": 5482,
      "ĠLang": 5483,
      "Ġalbum": 5484,
      "táº£i": 5485,
      "Ġvá»Ĺ": 5486,
      "ĠKhÃŃ": 5487,
      "âĢ¦âĢĿ": 5488,
      "ĠAM": 5489,
      "á»ĩm": 5490,
      "aylist": 5491,
      "ĠAirlines": 5492,
      "ĠBáº¿p": 5493,
      "AO": 5494,
      "ĠTrÆ°ng": 5495,
      "ational": 5496,
      "ife": 5497,
      "ĠbÃ³c": 5498,
      "ĠIran": 5499,
      "rl": 5500,
      "Ġspa": 5501,
      "ĠVNÄĲ": 5502,
      "ĠCháº¥p": 5503,
      "ĠDáº¡": 5504,
      ">>": 5505,
      "apa": 5506,
      "ashing": 5507,
      "ĠThuáºŃt": 5508,
      "Máº«u": 5509,
      "Ġkhao": 5510,
      "ĠÄĳiÃªu": 5511,
      "Ġnghiá»ĩt": 5512,
      "ĠMang": 5513,
      "aul": 5514,
      "by": 5515,
      "ĠnhÆ°á»Ŀng": 5516,
      "aphone": 5517,
      "Ġá»Ĳ": 5518,
      "ĠSÃ¢n": 5519,
      "ĠChÃ¹a": 5520,
      "rael": 5521,
      "ĠHome": 5522,
      "83": 5523,
      "Æ°Æ¡m": 5524,
      "ĠKhá»Łi": 5525,
      "Ġxáº£o": 5526,
      "'s": 5527,
      "opy": 5528,
      "ĠÄĲáº¹p": 5529,
      "ĠUá»·": 5530,
      "ĠnhÃ¬": 5531,
      "Ġkiá»ģm": 5532,
      "ney": 5533,
      "Hz": 5534,
      "ĠBS": 5535,
      "Ġsá»Ŀ": 5536,
      "xx": 5537,
      "Ġmuá»Ļi": 5538,
      "ott": 5539,
      "Ġtuá»³": 5540,
      "ĠLÃ£o": 5541,
      "ĠBrazil": 5542,
      "Ġnhuyá»ħn": 5543,
      "ĠBlu": 5544,
      "Du": 5545,
      "Ġlog": 5546,
      "Ráº¥t": 5547,
      "á»¦": 5548,
      "Ġngáº«u": 5549,
      "Ġdáº·m": 5550,
      "ĠMil": 5551,
      "aka": 5552,
      "VÄĥn": 5553,
      "ashington": 5554,
      "AP": 5555,
      "onaldo": 5556,
      "ĠCNTT": 5557,
      "ĠÄĳÃ¨": 5558,
      "rom": 5559,
      "theo": 5560,
      "ĠKhá»ĳi": 5561,
      "ĠTC": 5562,
      "ĠHN": 5563,
      "Há»ĵ": 5564,
      "Ġseo": 5565,
      "Ġlá»Ļi": 5566,
      "ĠChuyá»ĩn": 5567,
      "%)": 5568,
      "mer": 5569,
      "ĠSÃ³c": 5570,
      "Ġdá»Ŀi": 5571,
      "Ġmáº§u": 5572,
      "ĠBÄĥng": 5573,
      "Ġháº£": 5574,
      "iforn": 5575,
      "72": 5576,
      "ĠRom": 5577,
      "Ġnan": 5578,
      "ĠCáºŃu": 5579,
      "ĠMáºŃt": 5580,
      "Ġsá»¥p": 5581,
      "Ðº": 5582,
      "Ġoan": 5583,
      "ĠtÃ¡nh": 5584,
      "ream": 5585,
      "ĠÄĲÃºng": 5586,
      "ĠchÃ©m": 5587,
      "CuaTui": 5588,
      "ĠkhiÃªm": 5589,
      "ĠNhacCuaTui": 5590,
      "ĠxÃ´": 5591,
      "Ġcháº£o": 5592,
      "Ġnháº·t": 5593,
      "HP": 5594,
      "ÄĲá»ĭa": 5595,
      "ĠNgÃ´i": 5596,
      "ins": 5597,
      "ifornia": 5598,
      "Ġpost": 5599,
      "ĠGT": 5600,
      "ĠNhÃ³m": 5601,
      "Ġliá»ħu": 5602,
      "uki": 5603,
      "ĠHá»Ļ": 5604,
      "Ġtrá»ĩt": 5605,
      "Ġlá»Ļt": 5606,
      "ĠSU": 5607,
      "ĠquÃŃ": 5608,
      "Ġkháº½": 5609,
      "ĠÆ¯u": 5610,
      "56": 5611,
      "ĠchÃ´n": 5612,
      "Ġ44": 5613,
      "ĠHong": 5614,
      "HD": 5615,
      "ĠmÃ¢m": 5616,
      "ĠCM": 5617,
      "les": 5618,
      "HÆ°á»Ľng": 5619,
      "Ġngáº¯t": 5620,
      "Ġnháº¥p": 5621,
      "ĠhÃ´ng": 5622,
      "......": 5623,
      "way": 5624,
      "ĠLiá»ĩu": 5625,
      "52": 5626,
      "Ġloss": 5627,
      "ĠNi": 5628,
      "Ġ51": 5629,
      "Ġcard": 5630,
      "Ġgá»Łi": 5631,
      "á»Ľc": 5632,
      "Ġká»µ": 5633,
      "NÆ°á»Ľc": 5634,
      "Ġcáº¥y": 5635,
      "Ġmuá»Ĺng": 5636,
      "aki": 5637,
      "ings": 5638,
      "Ġtáº¡ng": 5639,
      "ĠKháº¯c": 5640,
      "ĠhÆ°Æ¡": 5641,
      "Cáº£m": 5642,
      "ĠloÃ©t": 5643,
      "ĠPhiÃªn": 5644,
      "ĠSV": 5645,
      "Ġgá»Ļi": 5646,
      "ĠrÃ¡ch": 5647,
      "ĠTá»ĳi": 5648,
      "Ġplaylist": 5649,
      "Ġranh": 5650,
      "ĠVIá»Ĩ": 5651,
      "uto": 5652,
      "ĠKy": 5653,
      "bur": 5654,
      "ĠMaria": 5655,
      "Ð»": 5656,
      "ĠCÃĶNG": 5657,
      "á»£t": 5658,
      "ĠTower": 5659,
      "ĠIsrael": 5660,
      "ĠMC": 5661,
      "ĠÄĳá»ĳng": 5662,
      "ngh": 5663,
      "Ġluá»Ļc": 5664,
      "ĠHan": 5665,
      "ĠRa": 5666,
      "ĠResort": 5667,
      "MI": 5668,
      "erm": 5669,
      "ĠCro": 5670,
      "ĠLá»Ľp": 5671,
      "inho": 5672,
      "Ġkiá»ģu": 5673,
      "hop": 5674,
      "ĠphÆ°á»Ľc": 5675,
      "ĠCor": 5676,
      "ll": 5677,
      "ĠBÃ¡i": 5678,
      "ĠTuyá»ĥn": 5679,
      "HÃłng": 5680,
      "ĠOp": 5681,
      "ĠGreen": 5682,
      "á»Ķ": 5683,
      "ondon": 5684,
      "hay": 5685,
      "ĠBro": 5686,
      "ĠDT": 5687,
      "ĠGrand": 5688,
      "ĠBiáº¿t": 5689,
      "á»£p": 5690,
      "ĠAt": 5691,
      "ĠVan": 5692,
      "Ġ41": 5693,
      "ĠCD": 5694,
      "unt": 5695,
      ",âĢĿ": 5696,
      "ĠNgá»¯": 5697,
      "ĠDuyÃªn": 5698,
      "ĠSil": 5699,
      "ĠTuáº§n": 5700,
      "KS": 5701,
      "Ġchá»įc": 5702,
      "oga": 5703,
      "84": 5704,
      "ava": 5705,
      "Ġlossless": 5706,
      "ĠchÃ¬": 5707,
      "Ġváº¯t": 5708,
      "Ġrong": 5709,
      "ĠðŁ": 5710,
      "ĠTriá»ĥn": 5711,
      "ĠSP": 5712,
      "ĨĴ": 5713,
      "aomi": 5714,
      "ĠRAM": 5715,
      "ives": 5716,
      "Ġ900": 5717,
      "ther": 5718,
      "Ġmy": 5719,
      "ĠTrÄĥng": 5720,
      "ĠÄĳoan": 5721,
      "Ġváº·n": 5722,
      "Ġnguá»Ļi": 5723,
      "van": 5724,
      "ĠÂ«": 5725,
      "ĠWashington": 5726,
      "Ġgom": 5727,
      "Ġbá»«ng": 5728,
      "ĠSon": 5729,
      "ĠdÃ©p": 5730,
      "etooth": 5731,
      "que": 5732,
      "ĠnÃ³n": 5733,
      "ĠBÃ¡nh": 5734,
      "Ġtá»ĵi": 5735,
      "Ġnuá»ĳt": 5736,
      "Ġit": 5737,
      "Ġkáº¹p": 5738,
      "Ġmá»īm": 5739,
      "Ġ46": 5740,
      "Ġsá»ıi": 5741,
      "sc": 5742,
      "ĠïĢ½": 5743,
      "aly": 5744,
      "UYá»": 5745,
      "»¿": 5746,
      "Ã©c": 5747,
      "ĠtoÃł": 5748,
      "Báº¥t": 5749,
      "ĠGo": 5750,
      "ĠCÆ°Æ¡ng": 5751,
      "ONG": 5752,
      "ingroup": 5753,
      "kheo": 5754,
      "ĠVui": 5755,
      "ĠSang": 5756,
      "ĠXII": 5757,
      "Ġïĥ": 5758,
      "Báº£o": 5759,
      "po": 5760,
      "ron": 5761,
      "ĠMc": 5762,
      "ĠVTV": 5763,
      "ĠbÆ°á»Ľ": 5764,
      "Ġbá»Ļc": 5765,
      "Ġwifi": 5766,
      "ĠtÃºng": 5767,
      "ĠTruy": 5768,
      "ĠHoáº¡t": 5769,
      "ĠBÃ£i": 5770,
      "Ãµm": 5771,
      "Ġthoáº£": 5772,
      "ĠCalifornia": 5773,
      "TA": 5774,
      "ĠcÃ³c": 5775,
      "ĠPet": 5776,
      "ĠhÆ°á»Ľc": 5777,
      "ĠbÃºn": 5778,
      "Ġmuá»Ĺi": 5779,
      "shine": 5780,
      "Æ¯Æł": 5781,
      "53": 5782,
      "ĠkhiÃªu": 5783,
      "ĠThiÃªm": 5784,
      "ĠtÃ¡t": 5785,
      "ĠCu": 5786,
      "ĠGTVT": 5787,
      "ĠEmail": 5788,
      "Ġnhung": 5789,
      "Ġsc": 5790,
      "Ġ110": 5791,
      "ory": 5792,
      "87": 5793,
      "ĠTay": 5794,
      "ĠVND": 5795,
      "page": 5796,
      "Ġrá»ĥ": 5797,
      "ater": 5798,
      "Æ¯á»ľ": 5799,
      "pa": 5800,
      "ĠSá»¹": 5801,
      "ĠTráº¯ng": 5802,
      "gen": 5803,
      "ĠtÆ°á»Ľc": 5804,
      "DÆ°á»Ľi": 5805,
      "cuat": 5806,
      "Ġviáº¿ng": 5807,
      "Ġkhiáº¿p": 5808,
      "Ġgiáº·c": 5809,
      "Ġráº¡p": 5810,
      "ĠlÆ°á»Ŀi": 5811,
      "ĠbÃ¨n": 5812,
      "ĠCÃºc": 5813,
      "ĠThuáº¿": 5814,
      "ĠÄĲÃłm": 5815,
      "ĠMess": 5816,
      "ĠSpa": 5817,
      "Ġvá»ĭnh": 5818,
      "viet": 5819,
      "ĠxuÃ´i": 5820,
      "cuatui": 5821,
      "ĠÃĤn": 5822,
      "ĠBitcoin": 5823,
      "AY": 5824,
      "ĠMÃ³n": 5825,
      "Cl": 5826,
      "ĠsÃłnh": 5827,
      "DI": 5828,
      "ĠTuáº¥t": 5829,
      "ĠGiÃ¡c": 5830,
      "Ġlaser": 5831,
      "ual": 5832,
      "ĠJe": 5833,
      "ĠgÃ²": 5834,
      "arm": 5835,
      "ĠChampions": 5836,
      "ĠLondon": 5837,
      "82": 5838,
      "Ġäº": 5839,
      "ĠHiá»ĥu": 5840,
      "ĠRá»ĭa": 5841,
      "ĠKhoáº£ng": 5842,
      "ĠTá»§": 5843,
      "ĠHá»ıa": 5844,
      "ĠMart": 5845,
      "Å©a": 5846,
      "Ġset": 5847,
      "ĠTá»ĳng": 5848,
      "Ġkbps": 5849,
      "ixel": 5850,
      "cedes": 5851,
      "ĠchiÃª": 5852,
      "Ġgieo": 5853,
      "ĠPer": 5854,
      "Ġtest": 5855,
      "Cháº¥t": 5856,
      "ĠVingroup": 5857,
      "So": 5858,
      "tá»±": 5859,
      "ĠKháº£i": 5860,
      "ĠMin": 5861,
      "ĠNhaccuatui": 5862,
      "ĠphiÃªu": 5863,
      "ĠNokia": 5864,
      "Ġhack": 5865,
      "Quy": 5866,
      "ĠMong": 5867,
      "ĠgÃ¢n": 5868,
      "ĠAb": 5869,
      "ĠRonaldo": 5870,
      "ĠVÃ²ng": 5871,
      "ster": 5872,
      "ĠMP": 5873,
      "amil": 5874,
      "ĠSá»ĳng": 5875,
      "Ġ2003": 5876,
      "ĠNhiá»ĩt": 5877,
      "ĠRang": 5878,
      "ÄĲá»«ng": 5879,
      "ban": 5880,
      "ÄĲá»©c": 5881,
      "%;": 5882,
      "vi": 5883,
      "ĠBá»ī": 5884,
      "htt": 5885,
      "ĠTÃ¡t": 5886,
      "ĠsÆ°á»Łi": 5887,
      "ody": 5888,
      "Ġbá»±c": 5889,
      "ĠTá»³": 5890,
      "ĠMich": 5891,
      "ĠHO": 5892,
      "ĠNhÃ£": 5893,
      "Chiáº¿c": 5894,
      "Ġnáº¿n": 5895,
      "ĠÄĳao": 5896,
      "Danh": 5897,
      "ĠIm": 5898,
      "Ġhiáº¿p": 5899,
      "Ġphot": 5900,
      "DL": 5901,
      "Ġcá»«": 5902,
      "Ġkáº½m": 5903,
      "ĠloÃ£ng": 5904,
      "Giá»Ľi": 5905,
      "esterol": 5906,
      "Ġnhiáº¿p": 5907,
      "Ġmá»ĵi": 5908,
      "ĠKhuyáº¿n": 5909,
      "outh": 5910,
      "ĠiOS": 5911,
      "Ġkhay": 5912,
      "ĠCas": 5913,
      "ĠTag": 5914,
      "ĠNhiÃªn": 5915,
      "ĠKon": 5916,
      "ĠtÄĥm": 5917,
      "DN": 5918,
      "Ġhuyá»ĩt": 5919,
      "Ġmá»§": 5920,
      "mg": 5921,
      "ANH": 5922,
      "ĠLáº¥y": 5923,
      "ĠvÃ£": 5924,
      "ĠOlympic": 5925,
      "bin": 5926,
      "uz": 5927,
      "ĠQL": 5928,
      "Ġngáº·t": 5929,
      "ÃĮNH": 5930,
      "ĠnÃłn": 5931,
      "Ġcháº£i": 5932,
      "Ġvá»īa": 5933,
      "lÆ°á»£ng": 5934,
      "Ġgáº§y": 5935,
      "ĠLáº¡ng": 5936,
      "otel": 5937,
      "ĠBus": 5938,
      "Ġcá»Ľ": 5939,
      "ĠNhanh": 5940,
      "Ġ--": 5941,
      "ishi": 5942,
      "ĠAngel": 5943,
      "ĠGen": 5944,
      "der": 5945,
      "Ġ52": 5946,
      "ĠNhuáºŃn": 5947,
      "ĠTrÃłng": 5948,
      "thi": 5949,
      "ĠFLC": 5950,
      "Nháº±m": 5951,
      "ĠpháºŃt": 5952,
      "lÃł": 5953,
      "ĠVina": 5954,
      "Ġ59": 5955,
      "=\"": 5956,
      "ĠJu": 5957,
      "ĠArsen": 5958,
      "OV": 5959,
      "ĠSÆ¡": 5960,
      "ĠTháºŃp": 5961,
      "Má»¥c": 5962,
      "ele": 5963,
      "ĠMÃ¹i": 5964,
      "ÃĲ": 5965,
      "Quáº£ng": 5966,
      "Ai": 5967,
      "ĠVinaphone": 5968,
      "pool": 5969,
      "ĠchÆ°á»Ľng": 5970,
      "ĠThÃ¬": 5971,
      "Ġgen": 5972,
      "ĠDis": 5973,
      "DS": 5974,
      "Ġsáº§m": 5975,
      "ĠPháº©m": 5976,
      "Æ¯ÆłNG": 5977,
      "ĠAN": 5978,
      "Ġghen": 5979,
      "ĠTho": 5980,
      "Ġngá»¡": 5981,
      "giÃ¡": 5982,
      "ham": 5983,
      "Ġquá»µ": 5984,
      "ĠDav": 5985,
      "St": 5986,
      "ĠgiÃ£": 5987,
      "ĠkiÃªu": 5988,
      "ĠrÃ©t": 5989,
      "UNG": 5990,
      "Ġkhinh": 5991,
      "Ġ2004": 5992,
      "ÄĲá»ģ": 5993,
      "ĠKr": 5994,
      "BÃ¡c": 5995,
      "ĠMá»Ŀi": 5996,
      "uild": 5997,
      "alog": 5998,
      "Tu": 5999,
      "ĠchÃ¹m": 6000,
      "ĠNay": 6001,
      "ĠShi": 6002,
      "Ġgáº·t": 6003,
      "eta": 6004,
      "aha": 6005,
      "PC": 6006,
      "ĠPin": 6007,
      "áº¿ng": 6008,
      "ĠMÆ°á»Ŀng": 6009,
      "ĠKiá»ĥu": 6010,
      "Æ¡ng": 6011,
      "Home": 6012,
      "Ġ180": 6013,
      "Ġtáº£o": 6014,
      "ĠÄĳuá»ĳi": 6015,
      "Sá»Ńa": 6016,
      "lÃ´": 6017,
      "LÃ½": 6018,
      "ĠDes": 6019,
      "aine": 6020,
      "ĠMit": 6021,
      "Ġgiáº¿ng": 6022,
      "ĠÄĲang": 6023,
      "Ġláº«y": 6024,
      "Ġbanh": 6025,
      "Ġstart": 6026,
      "ĠThoáº¡i": 6027,
      "ĠGiáº£m": 6028,
      "ĠTÃŃch": 6029,
      "ĠPhu": 6030,
      "ĠBM": 6031,
      "Ġdá»¡": 6032,
      "Ġnhiá»ħu": 6033,
      "ĠLuÃ¢n": 6034,
      "ĠVitamin": 6035,
      "ĠhÃ£m": 6036,
      "Ġlá»Ļng": 6037,
      "Ġstress": 6038,
      "ÄĲÃºng": 6039,
      "ĠNáº±m": 6040,
      "ĠhiÃªn": 6041,
      "81": 6042,
      "Vá»«a": 6043,
      "anc": 6044,
      "ĠkhÃ¡nh": 6045,
      "ĠGiÃ¡ng": 6046,
      "ĠÄĲá»ı": 6047,
      "Ġmore": 6048,
      "ĠSuper": 6049,
      "TiÃªu": 6050,
      "................................": 6051,
      "Ġxá»ĳp": 6052,
      "ric": 6053,
      ",,": 6054,
      "peria": 6055,
      "ement": 6056,
      "ford": 6057,
      "Ġcau": 6058,
      "Ġnhuá»Ļm": 6059,
      "ĠÄĲá»Ļc": 6060,
      "Ġsal": 6061,
      "Gáº§n": 6062,
      "ĠHill": 6063,
      "ĠTháº¥y": 6064,
      "ĠâĢĶ": 6065,
      "ition": 6066,
      ".-": 6067,
      "Ġdang": 6068,
      "Ġsá»¥t": 6069,
      "ĠMá»Ł": 6070,
      "ĠbuÃ½t": 6071,
      "Ġ72": 6072,
      "ĠthÃªu": 6073,
      "Phim": 6074,
      "ANG": 6075,
      "Ġ63": 6076,
      "ĠTÃ¡m": 6077,
      "Ġráº£i": 6078,
      "Náº±m": 6079,
      "ĠSáº¯c": 6080,
      "ĠNGH": 6081,
      "ĠchÃ©o": 6082,
      "!!!": 6083,
      "ĮC": 6084,
      "ĠNgÃ´n": 6085,
      "Ġ360": 6086,
      "over": 6087,
      "Ġmicro": 6088,
      "ĠMu": 6089,
      "ĠLiá»ħu": 6090,
      "ĠDiá»ħm": 6091,
      "ĠhoÃ£n": 6092,
      "ae": 6093,
      "ani": 6094,
      "ĠKÃ´ng": 6095,
      "ĠTech": 6096,
      "Ġas": 6097,
      "ĠmáºŃp": 6098,
      "Ġchá»Ľp": 6099,
      "Máº¹": 6100,
      "âĢ¦)": 6101,
      "ĠMobi": 6102,
      "Ġcode": 6103,
      "âľ": 6104,
      "istan": 6105,
      "ĠSw": 6106,
      "ĠLee": 6107,
      "ĠÃĲá»©c": 6108,
      "nhÃł": 6109,
      "ĠbÃ¢": 6110,
      "vá»Ľi": 6111,
      "Ġtap": 6112,
      "ĠWord": 6113,
      "225": 6114,
      "Ġchol": 6115,
      "ĠMel": 6116,
      "ÂŃ": 6117,
      "Ġcáº©m": 6118,
      "ĠLáº¡p": 6119,
      "thu": 6120,
      "ĠPS": 6121,
      "ĠFran": 6122,
      "Ġ54": 6123,
      "Ġcáº±m": 6124,
      "ÄĲi": 6125,
      "ĠSport": 6126,
      "ĠTrá»±c": 6127,
      "ĠKCN": 6128,
      "51": 6129,
      "Quyáº¿t": 6130,
      "ova": 6131,
      "ĠrÃ²": 6132,
      "Ġbáº©m": 6133,
      "DF": 6134,
      "ĠLÃ´": 6135,
      "sau": 6136,
      "Ġ220": 6137,
      "ĠAC": 6138,
      "khoáº£ng": 6139,
      "pro": 6140,
      "ĠthÆ°Æ¡": 6141,
      "Ġday": 6142,
      "ĠbÆ°á»Łi": 6143,
      "ĠhÃ¢n": 6144,
      "ĠÃģi": 6145,
      "ĠMáº¡ch": 6146,
      "duc": 6147,
      "ĠhÄĥng": 6148,
      "Ġcá»Ĺ": 6149,
      "ĠbÃ¬a": 6150,
      "ĠObama": 6151,
      "Chu": 6152,
      "ĠÄĲá»ĳng": 6153,
      "báº¥t": 6154,
      "ĠGIÃģ": 6155,
      "Ġhe": 6156,
      "ainer": 6157,
      "ĠMT": 6158,
      "ĠâĨĴ": 6159,
      "ĠPhá»ķ": 6160,
      "Ġ56": 6161,
      "aco": 6162,
      "Ġgáº§m": 6163,
      "Ġrá»Ļ": 6164,
      "ĠChia": 6165,
      "Ġop": 6166,
      "ĠSáº½": 6167,
      "ĠPCC": 6168,
      "ÄĳÆ°á»£c": 6169,
      "ical": 6170,
      "Ġtoan": 6171,
      "Ġáº¢": 6172,
      "BT": 6173,
      "ĠKong": 6174,
      "ips": 6175,
      "Ġvá»£t": 6176,
      "ora": 6177,
      "ecal": 6178,
      "ĠTá»ĳ": 6179,
      "ĠHÄĲQT": 6180,
      "ĠbÃ©n": 6181,
      "ĠThÃ¹y": 6182,
      "ĠVáº¥p": 6183,
      "ĠghÃª": 6184,
      "ĠRed": 6185,
      "rm": 6186,
      "ĠIV": 6187,
      "Ġrá»§": 6188,
      "ĠtriÃª": 6189,
      "HoÃłng": 6190,
      "ĠDá»¥ng": 6191,
      "ĠRead": 6192,
      "76": 6193,
      "xem": 6194,
      "td": 6195,
      "ĠChrist": 6196,
      "ĠcÃºm": 6197,
      "VÃŃ": 6198,
      "700": 6199,
      "ĠVic": 6200,
      "\":": 6201,
      "ĠBen": 6202,
      "eview": 6203,
      "ĠHiÃªn": 6204,
      "áº¦N": 6205,
      "quy": 6206,
      "ĠNgÃłnh": 6207,
      "ĠViÃªm": 6208,
      "ĠgÃ³t": 6209,
      "ĠKhÃ³a": 6210,
      "ĠVy": 6211,
      "ĠPower": 6212,
      "Bá»Łi": 6213,
      "Ġhoáº¡": 6214,
      "ĠCá»ķng": 6215,
      "ĠnhÃ¡y": 6216,
      "ĠPlay": 6217,
      "Ġniá»ĩu": 6218,
      "ĠLáº¯k": 6219,
      "itan": 6220,
      "omb": 6221,
      "ĠVÆ°á»Ŀn": 6222,
      "ĠMercedes": 6223,
      "ella": 6224,
      "2007": 6225,
      "ors": 6226,
      "nhá»¯ng": 6227,
      "own": 6228,
      "ĠHIV": 6229,
      "otte": 6230,
      "ĠThuÃª": 6231,
      "iverpool": 6232,
      "ĠPhÃŃa": 6233,
      "ĠQuáº§n": 6234,
      "ĠvÆ°": 6235,
      "phÃºt": 6236,
      "Ġbáº¡": 6237,
      "Ġnghiá»ģn": 6238,
      "play": 6239,
      "gent": 6240,
      "ĠArsenal": 6241,
      "Ġback": 6242,
      "ĠdÃ¢": 6243,
      "Ġbalo": 6244,
      "ĠlÃ¡ng": 6245,
      "cl": 6246,
      "Ġngáº¥t": 6247,
      "73": 6248,
      "kyo": 6249,
      "ĠAv": 6250,
      "ï»¿": 6251,
      "Ġcholesterol": 6252,
      "Ġxoang": 6253,
      "ĠView": 6254,
      "á»¨": 6255,
      "))": 6256,
      "Ġat": 6257,
      "PhÃ³": 6258,
      "Ġnhai": 6259,
      "...)": 6260,
      "Ġ69": 6261,
      "ĠJo": 6262,
      "ĠMos": 6263,
      "ĠYoutube": 6264,
      "Ġtháº¡o": 6265,
      "ĠGB": 6266,
      "Tá»ķ": 6267,
      "men": 6268,
      "ĠcuÃ´": 6269,
      "ĠChÄĥm": 6270,
      "Ġtháº£n": 6271,
      "ĠchÃ³i": 6272,
      "ĠMore": 6273,
      "pearl": 6274,
      "Cáº£": 6275,
      "ĠBig": 6276,
      "ĠRao": 6277,
      "ĠGl": 6278,
      "ett": 6279,
      "Ġnhat": 6280,
      "Ġque": 6281,
      "ĠquyÃª": 6282,
      "ĠxÃłi": 6283,
      "ĠÄĲÃªm": 6284,
      "ĠÆ°á»Ľp": 6285,
      "ThÃ¡i": 6286,
      "ĠnÃłnh": 6287,
      "ĠrÃ¡t": 6288,
      "ĠPGS": 6289,
      "ĠUkr": 6290,
      "150": 6291,
      "Ġcáº©u": 6292,
      "fo": 6293,
      "za": 6294,
      "ĠmÃ¢": 6295,
      "ĠISO": 6296,
      "ĠXiaomi": 6297,
      "avel": 6298,
      "ĠBos": 6299,
      "ÄĳÃ£": 6300,
      "IP": 6301,
      "Ġcach": 6302,
      "ĠTri": 6303,
      "Ġchuyen": 6304,
      "ĠUnited": 6305,
      "bi": 6306,
      "for": 6307,
      "Ġngoáº¡n": 6308,
      "ĠUyÃªn": 6309,
      "ĠnhÅ©": 6310,
      "ĠKá»ĥ": 6311,
      "Ġquáº¥n": 6312,
      "cÃ´": 6313,
      "Chia": 6314,
      "Ġcháº±m": 6315,
      "Ġháº¯c": 6316,
      "Ã³p": 6317,
      "ĠMÃª": 6318,
      "xin": 6319,
      "ĠBank": 6320,
      "ĠPremier": 6321,
      "ĠTáº¡": 6322,
      "Ġ>>": 6323,
      "ĠÄĳÆ¡": 6324,
      "%/": 6325,
      "ĠvÃłn": 6326,
      "ĠAT": 6327,
      "Ġ1975": 6328,
      "cc": 6329,
      "xÃ£": 6330,
      "Ġex": 6331,
      "ĠShow": 6332,
      "ĠTáº¡ng": 6333,
      "ĴNG": 6334,
      "ĠdÃ¬": 6335,
      "ĠmiÃªu": 6336,
      "err": 6337,
      "Ġ88": 6338,
      "áº¬T": 6339,
      "VA": 6340,
      "ĠIntel": 6341,
      "ĠCá»±c": 6342,
      "able": 6343,
      "ĠChar": 6344,
      "QL": 6345,
      "QH": 6346,
      "giá»Ŀ": 6347,
      "ny": 6348,
      "Ġ@": 6349,
      "ĠVu": 6350,
      "2019": 6351,
      "aya": 6352,
      "tá»©c": 6353,
      "HS": 6354,
      "EX": 6355,
      "br": 6356,
      "ko": 6357,
      "ĠgáºŃy": 6358,
      "ĠHiá»ĥn": 6359,
      "tÆ°Æ¡ng": 6360,
      "Ġthá»ı": 6361,
      "Sinh": 6362,
      "ĠEng": 6363,
      "work": 6364,
      "GiÃ¡o": 6365,
      ",\"": 6366,
      "CÃ¢y": 6367,
      "ĠLCD": 6368,
      "ĠChuáº©n": 6369,
      "TTg": 6370,
      "ĠÂ·": 6371,
      "Ġnhá»ķ": 6372,
      "ĠcÃºc": 6373,
      "Ġkhuya": 6374,
      "ĠChá»ĳng": 6375,
      "evel": 6376,
      "ï¼": 6377,
      "ĠNhung": 6378,
      "fÃ©": 6379,
      "ĠVá»ĭnh": 6380,
      "Ġus": 6381,
      "ĠEver": 6382,
      "ĠcÃło": 6383,
      "áº¢N": 6384,
      "Ġsá»¥n": 6385,
      "ĠTiáº¿t": 6386,
      "GA": 6387,
      "LA": 6388,
      "95": 6389,
      "ĠTokyo": 6390,
      "Ġlá»Ńng": 6391,
      "Ġgel": 6392,
      "Láº§n": 6393,
      "ĠWin": 6394,
      "ĠcÆ°ng": 6395,
      "ĠHol": 6396,
      "Ġcity": 6397,
      "Ġthá»¥c": 6398,
      "city": 6399,
      "atin": 6400,
      "TD": 6401,
      "ĠNháºŃp": 6402,
      "dro": 6403,
      "DÃ¢n": 6404,
      "Ġcomp": 6405,
      "obot": 6406,
      "bal": 6407,
      "ĠchÃ¨n": 6408,
      "ĠKhÃ¡c": 6409,
      "Thá»ĭ": 6410,
      "ĠEle": 6411,
      "CV": 6412,
      "azon": 6413,
      "ĠTáº·ng": 6414,
      "ĠngáºŃm": 6415,
      "ĠYo": 6416,
      "====": 6417,
      "ĠSn": 6418,
      "ĠNgÆ°á»£c": 6419,
      "Äĳá»ĥ": 6420,
      "ĠkhÃŃt": 6421,
      "Ġdáº¡n": 6422,
      "ĠAlex": 6423,
      "LO": 6424,
      "Há»į": 6425,
      "ĠsÃ¹i": 6426,
      "Ġnáº£n": 6427,
      "ĠTá»©c": 6428,
      "Ġnhá»įc": 6429,
      "ĠdÆ°ng": 6430,
      "ĠMat": 6431,
      "Ġtráº§y": 6432,
      "ĠÃģp": 6433,
      "ĠJack": 6434,
      "Ġcá»ĳi": 6435,
      "ĠBer": 6436,
      "ĠGiáº£": 6437,
      "ĠTum": 6438,
      "Ġchui": 6439,
      "FC": 6440,
      "read": 6441,
      "ĠÄĳá»Ļn": 6442,
      "ĠBá»ķ": 6443,
      "Ġquáº¥y": 6444,
      "utin": 6445,
      "ĠSi": 6446,
      "ĠXÃ¡": 6447,
      "ThiÃªn": 6448,
      "ima": 6449,
      "ĠBlog": 6450,
      "ĠMB": 6451,
      "áº½n": 6452,
      "phá»¥c": 6453,
      "ĠNghiÃªm": 6454,
      "ĠgiÃ²": 6455,
      "Ġ68": 6456,
      "XD": 6457,
      "ĠCEO": 6458,
      "Ġblock": 6459,
      "RE": 6460,
      "ja": 6461,
      "ĠLuáºŃn": 6462,
      "ĠNAM": 6463,
      "ĠlÆ°á»£n": 6464,
      "Ġchá»ĳc": 6465,
      "Tá»ĳi": 6466,
      "ĠTá»ĳc": 6467,
      "sinh": 6468,
      "Ġlay": 6469,
      "ĠÄĳiá»ģm": 6470,
      "Cam": 6471,
      "ĠBTC": 6472,
      "ĠLiverpool": 6473,
      "áº¶": 6474,
      "ĠMá»«ng": 6475,
      "ĠnÆ°": 6476,
      "ĠYam": 6477,
      "áº®": 6478,
      "Tiá»ĥu": 6479,
      "ĠRoy": 6480,
      "ĠQuáº¿": 6481,
      "ĠláºŃn": 6482,
      "ĠmÃło": 6483,
      "Ġ~": 6484,
      "ĠKang": 6485,
      "nhÃ¢n": 6486,
      "Ġgiu": 6487,
      "Ġthá»ĳi": 6488,
      "ĠGP": 6489,
      "ĠTrá»¥": 6490,
      "Cá»Ńa": 6491,
      "Ġ62": 6492,
      "Ġhoi": 6493,
      "star": 6494,
      "ĠCÃģ": 6495,
      "74": 6496,
      "ĠDÄ©": 6497,
      "ĠCÃ´n": 6498,
      "Ġphá»¥ng": 6499,
      "Buá»ķi": 6500,
      "ĠTiá»ĩn": 6501,
      "ĠTÆ°á»Łng": 6502,
      "ĠPha": 6503,
      "ĠLaser": 6504,
      "TÆ°": 6505,
      "ĠDao": 6506,
      "ĠÄĲen": 6507,
      "exico": 6508,
      "Ġsil": 6509,
      "----------------": 6510,
      "ĠDel": 6511,
      "Ġvn": 6512,
      "Ġ350": 6513,
      "Ġkhá»ĳc": 6514,
      "anmar": 6515,
      "Ġgáº¥u": 6516,
      "250": 6517,
      "Ġsáº§u": 6518,
      "Loáº¡i": 6519,
      "ĠPi": 6520,
      "ĠDÃ¢y": 6521,
      "ĠrÃ²ng": 6522,
      "Ġnoi": 6523,
      "ĠDáº§n": 6524,
      "Ġgym": 6525,
      "CÄĲ": 6526,
      "MA": 6527,
      "Ġmáº¯ng": 6528,
      "Ġphá»ĳt": 6529,
      "Com": 6530,
      "?âĢĿ.": 6531,
      "ĠKing": 6532,
      "PN": 6533,
      "ĠNÃ¢ng": 6534,
      "oshi": 6535,
      "ĠchuyÃª": 6536,
      "ĠMag": 6537,
      "ĠxÃ©": 6538,
      "ĠDan": 6539,
      "Ġchá»ķ": 6540,
      "ĠSÃłn": 6541,
      "Ġun": 6542,
      "ÃĢN": 6543,
      "ĠBiá»ĥu": 6544,
      "Ġlá»ĵn": 6545,
      "azda": 6546,
      "ters": 6547,
      "ĠLed": 6548,
      "ĠLi": 6549,
      "ĠmÃ©p": 6550,
      "Ġthiáº¿p": 6551,
      "ii": 6552,
      "Ġkhan": 6553,
      "ĠhÃ©t": 6554,
      "Ġsáº¿p": 6555,
      "ĠPCCC": 6556,
      "ĠSl": 6557,
      "Pr": 6558,
      "åħ": 6559,
      "ĠKhÃ¡m": 6560,
      "ĠVIá»ĨT": 6561,
      "tral": 6562,
      "ĠvÃ´i": 6563,
      "Ø§": 6564,
      "Phá»¥": 6565,
      "Ġpr": 6566,
      "ĠAll": 6567,
      "ĠMÃ´ng": 6568,
      "ĠmÃ¡c": 6569,
      "ĠÄĲáº£m": 6570,
      "ĠWal": 6571,
      "ĠMetro": 6572,
      "Ġruá»ĵi": 6573,
      "ward": 6574,
      "ĠCont": 6575,
      "ĠID": 6576,
      "Ġnhá»ĵi": 6577,
      "Ñĥ": 6578,
      "Ġkhuáº¥y": 6579,
      "ĠCáº£ng": 6580,
      "zu": 6581,
      "witter": 6582,
      "han": 6583,
      "ates": 6584,
      "Ġvá»©t": 6585,
      "ĠPlaza": 6586,
      "Háº§u": 6587,
      "Nhá»Ŀ": 6588,
      "Ġ58": 6589,
      "Äĳá»ĳi": 6590,
      "ĠRá»ĵng": 6591,
      "ourinho": 6592,
      "ĠxuÃ¢": 6593,
      "ged": 6594,
      "ific": 6595,
      "áº¬N": 6596,
      "ĠÄĳÅ©a": 6597,
      "USD": 6598,
      "ĠKem": 6599,
      "Ġgoogle": 6600,
      "Ġje": 6601,
      "Ġ128": 6602,
      "mua": 6603,
      "Ġloan": 6604,
      "ĠliÃªng": 6605,
      "ĠcÃºp": 6606,
      "oster": 6607,
      "2006": 6608,
      "Ġtháº£y": 6609,
      "Nghe": 6610,
      "ĠNet": 6611,
      "ĠChinh": 6612,
      "ĠSá»¯a": 6613,
      "ĠSunshine": 6614,
      "Ġ53": 6615,
      "Ġhost": 6616,
      "Ġcr": 6617,
      "ÄĲá»Ļi": 6618,
      "word": 6619,
      "Æ°á»Ŀm": 6620,
      "ĠÄĲÃ¡ng": 6621,
      "ĠEco": 6622,
      "ĠDell": 6623,
      "ĠLÃ¡": 6624,
      "itt": 6625,
      "Ġform": 6626,
      "Ġphá»Ł": 6627,
      "ĠWar": 6628,
      "Ġbá»ķn": 6629,
      "ĠHÃ²n": 6630,
      "atic": 6631,
      "ĠInst": 6632,
      "á»ļ": 6633,
      "Ġdr": 6634,
      "ĠMiá»ħn": 6635,
      "ĠgáºŃp": 6636,
      "ĠTimes": 6637,
      "ToÃłn": 6638,
      "link": 6639,
      "áº¨": 6640,
      "Ġor": 6641,
      "ĠnÃªm": 6642,
      "ĠChá»¯": 6643,
      "Ìī,": 6644,
      "71": 6645,
      "ĠHotel": 6646,
      "Ġquáº¿": 6647,
      "Ah": 6648,
      "ĠPhá»¥ng": 6649,
      "ĠNiÃªn": 6650,
      "ĠnháºŃu": 6651,
      "Iá»ĨN": 6652,
      "ĠtÆ°Æ¡": 6653,
      "Ĥ«": 6654,
      "ÄĲoÃłn": 6655,
      "combank": 6656,
      "UB": 6657,
      "Ġcá»«u": 6658,
      "ĠBuÃ´n": 6659,
      "Ġcáº¡o": 6660,
      "eed": 6661,
      "Ġcomment": 6662,
      "ĠtoÃ¡t": 6663,
      "Ġbáº»": 6664,
      "ĠTuá»ĩ": 6665,
      "ĠthiÃªu": 6666,
      "ĠkÃ©t": 6667,
      "ĠCR": 6668,
      "TO": 6669,
      "ĠphÃ´ng": 6670,
      "ĠÄĲá»Ŀi": 6671,
      "air": 6672,
      "biz": 6673,
      "ĠGolden": 6674,
      "Ġlá»¥t": 6675,
      "Ġtháº¯n": 6676,
      "ĠMá»Ļng": 6677,
      "ĠTuyáº¿n": 6678,
      "Lá»Ŀi": 6679,
      "à¸": 6680,
      "ĠÃ¢": 6681,
      "ĠMexico": 6682,
      "...\"": 6683,
      "ĠPhÃŃ": 6684,
      "ĠphÃ¡c": 6685,
      "ÃģN": 6686,
      "Ġtáº¡c": 6687,
      "åĽ": 6688,
      "ĠhÃ³c": 6689,
      "ĠSapa": 6690,
      "AD": 6691,
      "Ġsize": 6692,
      "ĠTáº§ng": 6693,
      "Fi": 6694,
      "ĠDáºŃu": 6695,
      "Ġiphone": 6696,
      "ĠUnivers": 6697,
      "ons": 6698,
      "ĠTráº¥n": 6699,
      "ĠAg": 6700,
      "Ġngoa": 6701,
      "Â°": 6702,
      ")-": 6703,
      "Ġquá»³": 6704,
      "ĠSmart": 6705,
      "Ġrá»ķ": 6706,
      "Ġtháº¯p": 6707,
      "Ġrá»Ĺi": 6708,
      "ĠNÃºi": 6709,
      "Ġwith": 6710,
      "ĠWest": 6711,
      "][": 6712,
      "ThÃªm": 6713,
      "Ġhoáº¡n": 6714,
      "ept": 6715,
      "ĠoÃ¡n": 6716,
      "á»¥i": 6717,
      "ĠmiÃªn": 6718,
      "ĠCá»©u": 6719,
      "ĠMaster": 6720,
      "Ġïģ": 6721,
      "ĠâĢĭ": 6722,
      "Hy": 6723,
      "ĠnÃª": 6724,
      "ÃĢI": 6725,
      "ĠngÆ¡": 6726,
      "ĠSm": 6727,
      "ĠSÃ¡t": 6728,
      "BÃłn": 6729,
      "Ġráº£nh": 6730,
      "Æ¯á»ļ": 6731,
      "py": 6732,
      "âĸ": 6733,
      "gentina": 6734,
      "Ġrá»Ĺng": 6735,
      "ocopy": 6736,
      "TW": 6737,
      "ado": 6738,
      "ĠUV": 6739,
      "Chuyá»ĩn": 6740,
      "Ġgá»¥c": 6741,
      "TÃ¡c": 6742,
      "ĠrÃ£": 6743,
      "Ġvá»Ľt": 6744,
      "ĠPa": 6745,
      "ĠAp": 6746,
      "ĠvÃ¡c": 6747,
      "ĠMr": 6748,
      "ĠrÆ°á»Ľc": 6749,
      "Ġen": 6750,
      "ĠNÃły": 6751,
      "Ġtáº¥u": 6752,
      "ĠlÃ©n": 6753,
      "Ġrá»Ľt": 6754,
      "Ná»¯": 6755,
      "TÃłi": 6756,
      "Ġphiáº¿n": 6757,
      "Ġ125": 6758,
      "ĠnÃ¡o": 6759,
      "ĠHá»ķ": 6760,
      "mÃ´n": 6761,
      "900": 6762,
      "ĠBinh": 6763,
      "Ġsáº£nh": 6764,
      "DÃ¹ng": 6765,
      "ĠnhÃ¡i": 6766,
      "cher": 6767,
      "ĠSol": 6768,
      "ĠnhÃłm": 6769,
      "huyá»ĩn": 6770,
      "NV": 6771,
      "ĠTQ": 6772,
      "ĠchÃ´": 6773,
      "ĠHTX": 6774,
      "ĠÄĳÃłng": 6775,
      "Ġsá»«ng": 6776,
      "ĠSá»ķ": 6777,
      "Ġthá»§ng": 6778,
      "ĠWe": 6779,
      "ĠMourinho": 6780,
      "Ġphai": 6781,
      "ĠVinpearl": 6782,
      "ĠGa": 6783,
      "Nguá»ĵn": 6784,
      "ĠÄĳá»Ŀ": 6785,
      "Ġ130": 6786,
      "Ġvá»±ng": 6787,
      "urn": 6788,
      "ĠgiÃ¡ng": 6789,
      "ĠLÄĲ": 6790,
      "ĠMus": 6791,
      "Ġä¹": 6792,
      "å¤": 6793,
      "ĠÄĳáºŃy": 6794,
      "Ġwin": 6795,
      "ĠMá»Ļ": 6796,
      "box": 6797,
      "oli": 6798,
      "Ġcáº·n": 6799,
      "Ġ57": 6800,
      "ĠKhÆ°Æ¡ng": 6801,
      ".)": 6802,
      "national": 6803,
      "osa": 6804,
      "my": 6805,
      "ĠGeo": 6806,
      "uba": 6807,
      "xe": 6808,
      "Ġkhá»ĳn": 6809,
      "ÄĲiá»ĩn": 6810,
      "ĠStr": 6811,
      "asonic": 6812,
      "---": 6813,
      "Ġná»ĩm": 6814,
      "ĠChÆ¡i": 6815,
      "Ġnáº¿m": 6816,
      "ĠVictor": 6817,
      "ĠVá»£": 6818,
      "ĠtuÃ½": 6819,
      "Äĳáº¡i": 6820,
      "pha": 6821,
      "ĠGiá»ĳng": 6822,
      "date": 6823,
      "ĠWi": 6824,
      "ĠVC": 6825,
      "Ġngá»ĳc": 6826,
      "ELTS": 6827,
      "Ġ1900": 6828,
      "nháº¥t": 6829,
      "ĠSG": 6830,
      "Ġráº¡n": 6831,
      "Ġhorm": 6832,
      "Ġ[...]": 6833,
      "ida": 6834,
      "pad": 6835,
      "Ġcháº§n": 6836,
      "ĠMotor": 6837,
      "ĠKT": 6838,
      "Ġrobot": 6839,
      "ĠDO": 6840,
      "ĠDavid": 6841,
      "ni": 6842,
      "ĠHoÃ¡": 6843,
      "Tráº§n": 6844,
      "ille": 6845,
      "ĠPo": 6846,
      "ĠMazda": 6847,
      "Khoáº£ng": 6848,
      "berg": 6849,
      "NghiÃªn": 6850,
      "Ġdes": 6851,
      "ĠNgá»į": 6852,
      "html": 6853,
      "NQ": 6854,
      "TÄĥng": 6855,
      "ĠXI": 6856,
      "Ġláº©u": 6857,
      "ĠsáºŃp": 6858,
      "iga": 6859,
      "Ġæľ": 6860,
      "VC": 6861,
      "Ġtá»¥i": 6862,
      "ĠchÆ°ng": 6863,
      "nhÆ°ng": 6864,
      "ĠHÃ´": 6865,
      "ĠMyanmar": 6866,
      "Quan": 6867,
      "ĠTY": 6868,
      "ealand": 6869,
      "ST": 6870,
      "Ġcheck": 6871,
      "ĠPhÃª": 6872,
      "Ġbá»ĩ": 6873,
      "Ġháº¡m": 6874,
      "Ġgirl": 6875,
      "ĠJun": 6876,
      "ĠÄĳá»ĳ": 6877,
      "TÃªn": 6878,
      "Ġchuá»ĵng": 6879,
      "ĠPutin": 6880,
      "sá»ĳ": 6881,
      "Vá»¥": 6882,
      "ĠTrÃ£i": 6883,
      "Ġ2002": 6884,
      "2020": 6885,
      "ĠthÃŃnh": 6886,
      "Ġel": 6887,
      "ĠArgentina": 6888,
      "subishi": 6889,
      "âĢ¦,": 6890,
      "Ġtháº¡c": 6891,
      "wood": 6892,
      "ĠTra": 6893,
      "Ġteen": 6894,
      "ĠLÃłng": 6895,
      "ĠCáºŃn": 6896,
      "ĠHáº¡o": 6897,
      "yn": 6898,
      "lic": 6899,
      "Ġvá»įt": 6900,
      "ĠxÃ¡t": 6901,
      "ĠPM": 6902,
      "Ġ%": 6903,
      "Ġchat": 6904,
      "Lá»ħ": 6905,
      "Read": 6906,
      "light": 6907,
      "ĠPT": 6908,
      "Ġ79": 6909,
      "Ġâľ": 6910,
      "____": 6911,
      "ĠTwitter": 6912,
      "ĠTK": 6913,
      "axi": 6914,
      "ĠTAND": 6915,
      "ĠBB": 6916,
      "ÄĲÄĥng": 6917,
      "ult": 6918,
      "ĠTom": 6919,
      "ĠtrÃ¹": 6920,
      "ĠVol": 6921,
      "Ġåħ": 6922,
      "><": 6923,
      "Báº±ng": 6924,
      "ĠlÅ©ng": 6925,
      "ĠCá»§": 6926,
      "ĠKar": 6927,
      "ĠMiss": 6928,
      "ĠAsia": 6929,
      "Ġresort": 6930,
      "ĠcÆ°a": 6931,
      "ĠCá»ĳc": 6932,
      "Ġxua": 6933,
      "DT": 6934,
      "ĠGDP": 6935,
      "EF": 6936,
      "Ġcalo": 6937,
      "OL": 6938,
      "ush": 6939,
      "ppo": 6940,
      "ĠNho": 6941,
      "ĠXÃ©t": 6942,
      "Ġ).": 6943,
      "Ìģ.": 6944,
      "Ġngháº½n": 6945,
      "house": 6946,
      "otton": 6947,
      "ĠHáº¡t": 6948,
      "ĠVH": 6949,
      "Ġ=>": 6950,
      "du": 6951,
      "ĠnhÃłn": 6952,
      "ĠKi": 6953,
      "ĠXá»Ń": 6954,
      "ĠTráº¡m": 6955,
      "ĠLaptop": 6956,
      "ĠDong": 6957,
      "Ġniá»ģng": 6958,
      "Ġhoc": 6959,
      "Ġtab": 6960,
      "ĠvÃ²m": 6961,
      "ĠchoÃ¡ng": 6962,
      "ĠIELTS": 6963,
      "ĠBluetooth": 6964,
      "Ġev": 6965,
      "thÃłnh": 6966,
      "day": 6967,
      "ĠThÃ¡m": 6968,
      "Ġmenu": 6969,
      "ori": 6970,
      "Ġpiano": 6971,
      "',": 6972,
      "quáºŃn": 6973,
      "ĠST": 6974,
      "ĠtrÃªu": 6975,
      "Ġkháº¯t": 6976,
      "Ġbáº«y": 6977,
      "Pháº£i": 6978,
      "Ġpoly": 6979,
      "dotel": 6980,
      "RL": 6981,
      "Ġgl": 6982,
      "ÄĲÃ¡nh": 6983,
      "anda": 6984,
      "ĠvÃµng": 6985,
      "á»£n": 6986,
      "ĠSuz": 6987,
      "Huyá»ĩn": 6988,
      "CL": 6989,
      "chester": 6990,
      "ĠResid": 6991,
      "ĠLá»Ľn": 6992,
      "Æ¯á»ľNG": 6993,
      "ĠsÄĥ": 6994,
      "Ġmobile": 6995,
      "ĠAFF": 6996,
      "ĠBMW": 6997,
      "ĠNov": 6998,
      "mÃ¡y": 6999,
      "ĠThao": 7000,
      "ÄĲáº¥t": 7001,
      "Ġngháº¹t": 7002,
      "ĠItalia": 7003,
      "Ġquyá»ĩn": 7004,
      "ĠLen": 7005,
      "Ġ->": 7006,
      "NháºŃt": 7007,
      "vÃ´": 7008,
      "ChÃº": 7009,
      "Ġchen": 7010,
      "ĠnghÃª": 7011,
      "ĠHá»ıi": 7012,
      "Ġváº¥p": 7013,
      "ĠÄĲáº¥u": 7014,
      "ware": 7015,
      "Pl": 7016,
      "TTQ": 7017,
      "ĠHÃ¢n": 7018,
      "Ġtá»ĳng": 7019,
      "PhÃ¡p": 7020,
      "BÃ¢y": 7021,
      "kok": 7022,
      "khi": 7023,
      "ĠKhanh": 7024,
      "ĠXÃ¡c": 7025,
      "VI": 7026,
      "Ġráº¡ch": 7027,
      "Ġå¤": 7028,
      "ĠÄĳá»ĳm": 7029,
      "Ġ89": 7030,
      "Sim": 7031,
      "ĠcÃ²i": 7032,
      "ĠTáº£": 7033,
      "Ġnáº¥y": 7034,
      "lad": 7035,
      "ĠIr": 7036,
      "Ġ66": 7037,
      "form": 7038,
      "Ġcontainer": 7039,
      "Tiá»ģn": 7040,
      "ĠSouth": 7041,
      "Ġbiáº¿ng": 7042,
      "cÃ¡i": 7043,
      "Ġxáº»": 7044,
      "ĠThiá»ĩu": 7045,
      "2005": 7046,
      "League": 7047,
      "dex": 7048,
      "ĠÄĲáº±ng": 7049,
      "ĠDá»¥c": 7050,
      "ury": 7051,
      "ĠHTC": 7052,
      "ild": 7053,
      "ĠMessi": 7054,
      "ĠCenter": 7055,
      "ThÆ°Æ¡ng": 7056,
      "ĠkÃ¬m": 7057,
      "atia": 7058,
      "Ġ160": 7059,
      "Pro": 7060,
      "tÃ´i": 7061,
      "ĠlÃ¡ch": 7062,
      "ĠMark": 7063,
      "Ġtá»¥t": 7064,
      "NÃ³": 7065,
      "eme": 7066,
      "ĠnhÃ¡t": 7067,
      "oney": 7068,
      "vÃ¬": 7069,
      "ĠÄĳÃ¨o": 7070,
      "ĠTuyá»ĩt": 7071,
      "ser": 7072,
      "ĠxÆ°á»Ľng": 7073,
      "NÃªn": 7074,
      "ChÆ°a": 7075,
      "ator": 7076,
      "LÃ¢m": 7077,
      "ĠRem": 7078,
      "apter": 7079,
      "ĠhoÄĥ": 7080,
      "ĠVÃ¹ng": 7081,
      "ĠKhÃ´i": 7082,
      "ĠWill": 7083,
      "Ġben": 7084,
      "ĠXa": 7085,
      "á»¬": 7086,
      "ĠEr": 7087,
      "Ġhd": 7088,
      "ĠdiÃª": 7089,
      "Ġhá»·": 7090,
      "ĠDai": 7091,
      "Phong": 7092,
      "ĠUp": 7093,
      "Ġ98": 7094,
      "HC": 7095,
      "ĠDinh": 7096,
      "ÄĲáº·t": 7097,
      "Tráº£": 7098,
      "ĠÄĲiá»ĩp": 7099,
      "ĠRO": 7100,
      "ĠHá»ĮC": 7101,
      "Ġmáº«n": 7102,
      "hy": 7103,
      "celona": 7104,
      "ĠliÃª": 7105,
      "ĠDiá»ĩm": 7106,
      "esh": 7107,
      "Chá»įn": 7108,
      "iness": 7109,
      "ĠZealand": 7110,
      "ĠUN": 7111,
      "Ġdecal": 7112,
      "ĠbÃ¡i": 7113,
      "ela": 7114,
      "Ġdata": 7115,
      "ette": 7116,
      "Ġthuá»Ł": 7117,
      "âĢĿ;": 7118,
      "ĠKha": 7119,
      "ĠLÄ©nh": 7120,
      "any": 7121,
      "Cháº¯c": 7122,
      "ĠJose": 7123,
      "cá»§a": 7124,
      "ĢN": 7125,
      "'.": 7126,
      "Ġbus": 7127,
      "ĠHáº£o": 7128,
      "uis": 7129,
      "ĠKhuÃª": 7130,
      "mark": 7131,
      "eral": 7132,
      "Co": 7133,
      "ĠPR": 7134,
      "ĠSec": 7135,
      "ĠLáº¯p": 7136,
      "Ġkhuynh": 7137,
      "thá»ĭ": 7138,
      "ĠPhÃłm": 7139,
      "Ġngáº£": 7140,
      "ĠÄĲá»ĩ": 7141,
      "ĠbÃºp": 7142,
      "ĠÄĳÃ¡i": 7143,
      "ĠrÃ£nh": 7144,
      "Â«": 7145,
      "ĠChÃłng": 7146,
      "âĢĻ.": 7147,
      "ĠRiver": 7148,
      "HÃłnh": 7149,
      "áº¦U": 7150,
      "Chiáº¿n": 7151,
      "ĠComment": 7152,
      "rolet": 7153,
      "Ġthá»Ńa": 7154,
      "Ġ1990": 7155,
      "lish": 7156,
      "Diá»ħn": 7157,
      "atar": 7158,
      "ĠMun": 7159,
      "ami": 7160,
      "Ġdc": 7161,
      "Ġsáº¥u": 7162,
      "evrolet": 7163,
      "Ġhinh": 7164,
      "ĠCanh": 7165,
      "Ġliáº¿c": 7166,
      "ĠcafÃ©": 7167,
      "ĠgÃ¡y": 7168,
      "ĠMá»ĭ": 7169,
      "ÃįNH": 7170,
      "Ġeuro": 7171,
      "crip": 7172,
      "Ġmg": 7173,
      "ĠHel": 7174,
      "ĠThuyáº¿t": 7175,
      "Ġáº£": 7176,
      "ila": 7177,
      "Ġserver": 7178,
      "Ġä½": 7179,
      "ĠcÃły": 7180,
      "Ġ67": 7181,
      "ĠBuá»ķi": 7182,
      "ĠVÄĲ": 7183,
      "Ġtáº·c": 7184,
      "ĠTráºŃn": 7185,
      "ci": 7186,
      "ĠToÃł": 7187,
      "Kiáº¿n": 7188,
      "Ġbá»Ľi": 7189,
      "IL": 7190,
      "Ġshowroom": 7191,
      "ĠmÃŃa": 7192,
      "ĠchÄĥ": 7193,
      "HN": 7194,
      "çī": 7195,
      "ĠUl": 7196,
      "Ġchapter": 7197,
      "Ġtáº¥p": 7198,
      "Ġ61": 7199,
      "ĠxoÃłi": 7200,
      "uilding": 7201,
      "ĠAmazon": 7202,
      "eon": 7203,
      "Ñı": 7204,
      "ÃĹ": 7205,
      "ĠFu": 7206,
      "Ġcat": 7207,
      "ĠGar": 7208,
      "Ãģo": 7209,
      "Ġngá»Ńa": 7210,
      "Ġphá»ĵng": 7211,
      "ĠThÃ´i": 7212,
      "ĠKia": 7213,
      "LVH": 7214,
      "Ġ\\\\": 7215,
      "car": 7216,
      "HO": 7217,
      "Ġmail": 7218,
      "Ġbá»ĵng": 7219,
      "ĠTiáº¿u": 7220,
      "ĠCá»±u": 7221,
      "Ġná»ī": 7222,
      "dio": 7223,
      "ĠGames": 7224,
      "ĠBáº¯t": 7225,
      "Tá»§": 7226,
      "ĠForm": 7227,
      "Ġpháº¥t": 7228,
      "Chung": 7229,
      "LuáºŃt": 7230,
      "ĠHá»£i": 7231,
      "âĢĶâĢĶ": 7232,
      "Ġnung": 7233,
      "ĠBarca": 7234,
      "Ġdau": 7235,
      "ĠtÃ¡ng": 7236,
      "PhÃ¢n": 7237,
      "120": 7238,
      "Ġlike": 7239,
      "fr": 7240,
      "quan": 7241,
      "ĠUkraine": 7242,
      "ĠOanh": 7243,
      "888": 7244,
      "cÃ¡ch": 7245,
      "Ġom": 7246,
      "Ġnháº¥c": 7247,
      "ĠnhÃºng": 7248,
      "ĠAud": 7249,
      "ato": 7250,
      "ĠDC": 7251,
      "ÄĳÆ°á»Ŀng": 7252,
      "ĠÄĲáºŃu": 7253,
      "ÄĲÃ¨n": 7254,
      "ĠDÆ°": 7255,
      "Ì£,": 7256,
      "chain": 7257,
      "Â·": 7258,
      "ĠÃª": 7259,
      "báº¡n": 7260,
      "TÃ¢n": 7261,
      "ĠNhá»ĭ": 7262,
      "ĠThÃŃ": 7263,
      "ĠLoa": 7264,
      "Ġtáº©m": 7265,
      "ĠRich": 7266,
      "azada": 7267,
      "ĠCSGT": 7268,
      "ĠNhá»Ľ": 7269,
      "ĠhÃ©": 7270,
      "TÆ°Æ¡ng": 7271,
      "Ká»ĥ": 7272,
      "ĠGem": 7273,
      "Muá»ĳn": 7274,
      "tream": 7275,
      "rÃ´": 7276,
      "Ġ....": 7277,
      "Ġgr": 7278,
      "ĠïĢŃ": 7279,
      "Al": 7280,
      "Ġhá»ĩt": 7281,
      "Ġapp": 7282,
      "ĠmÄ©": 7283,
      "andal": 7284,
      "Ġná»©c": 7285,
      "Äĥk": 7286,
      "ĠChÆ°": 7287,
      "ĠCÃ¡p": 7288,
      "cÃ²n": 7289,
      "Xuáº¥t": 7290,
      "ĠNN": 7291,
      "ĠJong": 7292,
      "Ð²": 7293,
      "ĠChÃło": 7294,
      "ovo": 7295,
      "Fone": 7296,
      "SC": 7297,
      "si": 7298,
      "Cháº³ng": 7299,
      "Ġ2001": 7300,
      "ÄĤn": 7301,
      "ĠPhao": 7302,
      "Ġflash": 7303,
      "äº": 7304,
      "MÃłu": 7305,
      "ĠphÃłm": 7306,
      "qua": 7307,
      "cean": 7308,
      "Ġlá»«ng": 7309,
      "ĠInternational": 7310,
      "fl": 7311,
      "JC": 7312,
      "ĠÄĲo": 7313,
      "ĠLink": 7314,
      "jet": 7315,
      "BM": 7316,
      "ĠxÃŃu": 7317,
      "Ġvá»¥n": 7318,
      "Ġ86": 7319,
      "ĠÆ¯á»Ľc": 7320,
      "Ġlon": 7321,
      "ĠTÃ½": 7322,
      "ĠdÃ´ng": 7323,
      "Ġmon": 7324,
      "Ġren": 7325,
      "ĠAsus": 7326,
      "ĠVIP": 7327,
      "Ġsáº£ng": 7328,
      "king": 7329,
      "ĠBarcelona": 7330,
      "Ġthung": 7331,
      "ĠchÃ¹i": 7332,
      "ĠLin": 7333,
      "ĠGá»įi": 7334,
      "ĠLÃ¢u": 7335,
      "Ġmá»ĳt": 7336,
      "amb": 7337,
      "ĠgÃ²n": 7338,
      "ĠATM": 7339,
      "TÃ¹y": 7340,
      "san": 7341,
      "ĠÃºy": 7342,
      "Háº£i": 7343,
      "Ġtá»§y": 7344,
      "ĠmuÃ´": 7345,
      "ÃĤY": 7346,
      "ĠSant": 7347,
      "ĠGiá»¯a": 7348,
      "ĠCV": 7349,
      "ĠhÃ¨n": 7350,
      "ield": 7351,
      "gmail": 7352,
      "ĠvÃŃt": 7353,
      "ĠLÃ²": 7354,
      "ĠMed": 7355,
      "ĠThÃº": 7356,
      "ĠVisa": 7357,
      "ĠLÃªn": 7358,
      "Ġhanh": 7359,
      "âĢ¦âĢ¦âĢ¦âĢ¦âĢ¦âĢ¦âĢ¦âĢ¦": 7360,
      "Ġtrau": 7361,
      "ĠGiáº£ng": 7362,
      "ÄĲÃł": 7363,
      "Ġngáº¥m": 7364,
      "ĠNat": 7365,
      "ĠnghÃªnh": 7366,
      "Thuá»ĳc": 7367,
      "ĠMáº¯t": 7368,
      "ĠtrÄĥn": 7369,
      "Ġáº¨": 7370,
      "ika": 7371,
      "ction": 7372,
      "ĠCTC": 7373,
      "ĠVai": 7374,
      "ĠTÆ¯": 7375,
      "ei": 7376,
      "Ã²e": 7377,
      "ven": 7378,
      "ĠTui": 7379,
      "Tiáº¿ng": 7380,
      "Ġthá»ģ": 7381,
      "Iá»Ĥ": 7382,
      "ech": 7383,
      "elf": 7384,
      "appy": 7385,
      "viáº¿t": 7386,
      "ĠManchester": 7387,
      "ĠTan": 7388,
      "ĠModel": 7389,
      "96": 7390,
      "Ġdat": 7391,
      "ĠrÃ³t": 7392,
      "Ġcuá»ĳng": 7393,
      "ĠHT": 7394,
      "á»ĲC": 7395,
      "ĠMitsubishi": 7396,
      "Ġ240": 7397,
      "ĠShin": 7398,
      "Sao": 7399,
      "áº©ng": 7400,
      "ĠXÆ°Æ¡ng": 7401,
      "å½": 7402,
      "ĠrÃ¡n": 7403,
      "Ġamin": 7404,
      "Ġhá»Ŀ": 7405,
      "IÃĬN": 7406,
      "aby": 7407,
      "ĠIN": 7408,
      "Cung": 7409,
      "ĠTÃºi": 7410,
      "ĠXX": 7411,
      "BA": 7412,
      "Ġguitar": 7413,
      "rit": 7414,
      "Ġnew": 7415,
      "ĠOppo": 7416,
      "ĠBÃłng": 7417,
      "Ġæĺ": 7418,
      "ĠBL": 7419,
      "ĠÄĲÃ´n": 7420,
      "Ñĭ": 7421,
      "ĠÄĲÃ¡p": 7422,
      "eco": 7423,
      "á»ª": 7424,
      "ks": 7425,
      "ĠHá»©a": 7426,
      "ĠClick": 7427,
      "Ġab": 7428,
      "Ġ81": 7429,
      "ĠMáº¥y": 7430,
      "XÃ¢y": 7431,
      "Ġváº§n": 7432,
      "bÃ¡n": 7433,
      "ĠkhiÃª": 7434,
      "ject": 7435,
      "ĠTHU": 7436,
      "ĠCÃ¡n": 7437,
      "EP": 7438,
      "stem": 7439,
      "Ġ73": 7440,
      "Ġsá»įc": 7441,
      "ĠHam": 7442,
      "ĠBÃ¨": 7443,
      "!âĢĿ.": 7444,
      "Ġ140": 7445,
      "ĠTha": 7446,
      "ning": 7447,
      "MÃ£": 7448,
      "ĠPanasonic": 7449,
      "rave": 7450,
      "ĠchÃ¨o": 7451,
      "ĠCÃ¢n": 7452,
      "Ġná»Ļ": 7453,
      "Ġxá»ĩ": 7454,
      "ĠHung": 7455,
      "Ãµng": 7456,
      "ĠÄĲá»ģn": 7457,
      "illa": 7458,
      "ĠnÃ©": 7459,
      "ĠVNPT": 7460,
      "ga": 7461,
      "Ġthat": 7462,
      "ĠGá»Ńi": 7463,
      "MC": 7464,
      "Ġnhá»§": 7465,
      "Ġáº¥u": 7466,
      "KD": 7467,
      "irc": 7468,
      "ĠThÃ¬n": 7469,
      "Ġthá»ĳt": 7470,
      "Ġhuá»·": 7471,
      "ĠcháºŃp": 7472,
      "LT": 7473,
      "ĠÄĳÃ´n": 7474,
      "sm": 7475,
      "ĠDay": 7476,
      "ĠCuba": 7477,
      "ÃŃu": 7478,
      "raq": 7479,
      "Diá»ĩn": 7480,
      "ĠBal": 7481,
      "ĠMedia": 7482,
      "ĠGTGT": 7483,
      "ĠBill": 7484,
      "ĠBangkok": 7485,
      "HA": 7486,
      "ĠTá»Ľi": 7487,
      "iki": 7488,
      "á¹": 7489,
      "Bao": 7490,
      "ĠÄĳáº½": 7491,
      "ĠRoyal": 7492,
      "ĠĠ": 7493,
      "ĠÄĲá»ĵn": 7494,
      "ĠFC": 7495,
      "ĠVer": 7496,
      "ĠbÃªnh": 7497,
      "ĠDVD": 7498,
      "Ex": 7499,
      "Ġsty": 7500,
      "bit": 7501,
      "Ġquai": 7502,
      "ĠJames": 7503,
      "cess": 7504,
      "ĠSá»©": 7505,
      "Ġ450": 7506,
      "ĠBT": 7507,
      "thanh": 7508,
      "Ġáº§m": 7509,
      "Ġcac": 7510,
      "http": 7511,
      "Ġ{": 7512,
      "Ġ101": 7513,
      "ĠxÃ´n": 7514,
      "Ġcas": 7515,
      "ĠphÃ´i": 7516,
      "loud": 7517,
      "ĠÄĲá»ĳc": 7518,
      "rg": 7519,
      "Â²": 7520,
      "ennis": 7521,
      "ĠNgÆ°Æ¡i": 7522,
      "Trao": 7523,
      "ĠRanh": 7524,
      "\",\"": 7525,
      "ĠmÃ¹ng": 7526,
      "ĠPP": 7527,
      "try": 7528,
      "ĠHua": 7529,
      "ĠÄĳáº£": 7530,
      "Ġfree": 7531,
      "ĠMas": 7532,
      "Äĳá»ĵng": 7533,
      "cÄĥn": 7534,
      "ĠGÃł": 7535,
      "Post": 7536,
      "Kim": 7537,
      "ĠbÆ°á»Ľm": 7538,
      "ĠIC": 7539,
      "ĠPaul": 7540,
      "ĠClin": 7541,
      "ĠHouse": 7542,
      "ietnam": 7543,
      "chá»ĭ": 7544,
      "Ġcá»Ńu": 7545,
      "ĠSeoul": 7546,
      "Ġngáº¡o": 7547,
      "Ġ82": 7548,
      "ĠbÄĥm": 7549,
      "SP": 7550,
      "ÄĤN": 7551,
      "ael": 7552,
      "Ġ96": 7553,
      "ĠNiá»ĩm": 7554,
      "Ġnhá»Ľt": 7555,
      "thá»Ŀi": 7556,
      "Ġchá»ĵ": 7557,
      "ĠLÃ¢n": 7558,
      "ĠMÅ©i": 7559,
      "aba": 7560,
      "wei": 7561,
      "AV": 7562,
      "ĠQuÃ´": 7563,
      "BV": 7564,
      "Æ¯á»¢": 7565,
      ".....": 7566,
      "ĠÄĲá»ķi": 7567,
      "Ġ1999": 7568,
      "áº³m": 7569,
      "SV": 7570,
      "ĠGiÃ³": 7571,
      "ĠTal": 7572,
      "Net": 7573,
      "ĠTrÃ¡nh": 7574,
      "BL": 7575,
      "III": 7576,
      "ĠmÃºt": 7577,
      "ÄĲá»ĵ": 7578,
      "92": 7579,
      "ude": 7580,
      "Ġep": 7581,
      "Äĳá»ģ": 7582,
      "ĠThuá»Ļt": 7583,
      "ĠSuzuki": 7584,
      "Ġphotocopy": 7585,
      "Ġnet": 7586,
      "ĠdÆ°Æ¡": 7587,
      "ÃŃp": 7588,
      "ĠVn": 7589,
      "ĠHDMI": 7590,
      "ĠPremium": 7591,
      "Ġmáº©n": 7592,
      "ĠJet": 7593,
      "ĠKhung": 7594,
      "æĸ": 7595,
      "ĠGrab": 7596,
      "Ġhá»ĳt": 7597,
      "ĠRanger": 7598,
      "Ġvali": 7599,
      "Ġmá»ĵm": 7600,
      "ĠSUV": 7601,
      "Ġthong": 7602,
      "Ġthá»ģm": 7603,
      "Ġbl": 7604,
      "Ġ78": 7605,
      "ĠCentral": 7606,
      "Ġsoc": 7607,
      "ĠPVC": 7608,
      "Ġå¾": 7609,
      "QuáºŃn": 7610,
      "ĠTrÃ²": 7611,
      "Ġ_": 7612,
      "ĠIraq": 7613,
      "ision": 7614,
      "ĠQuá»·": 7615,
      "ĠvÃ¡": 7616,
      "Cao": 7617,
      "á»Ĩ": 7618,
      "sá»±": 7619,
      "ĠFI": 7620,
      "ĠnÃºm": 7621,
      "Ġhá»ķng": 7622,
      "ĠHÃ¡t": 7623,
      "ĠïĢ«": 7624,
      "ĠÄĳáº¥m": 7625,
      "ĠTháº»": 7626,
      "98": 7627,
      "ĠNÃ´": 7628,
      "ĠÄĳÃ¡n": 7629,
      "Ġare": 7630,
      "allet": 7631,
      "ĠÃĶn": 7632,
      "awa": 7633,
      "ĠUá»ĳng": 7634,
      "ĠsÃłi": 7635,
      "acom": 7636,
      "ĠTáº¥m": 7637,
      "Ġná»ĥ": 7638,
      "ĠSS": 7639,
      "ĠPHÃģ": 7640,
      "ĠKáº»": 7641,
      "Ġ92": 7642,
      "ĠvÃ£ng": 7643,
      "tron": 7644,
      "Tá»±": 7645,
      "ĠLuyá»ĩn": 7646,
      "244": 7647,
      "ĠHÃĢNG": 7648,
      "ĠCroatia": 7649,
      "Ġtp": 7650,
      "Ġcotton": 7651,
      "trung": 7652,
      "ĠLux": 7653,
      "Ġmoi": 7654,
      "Ġsl": 7655,
      "ĠThai": 7656,
      "Nghá»ĩ": 7657,
      "ventus": 7658,
      "NhÃ³m": 7659,
      "Ġváº¯c": 7660,
      "ĠBÃŃnh": 7661,
      "nay": 7662,
      "ĠXperia": 7663,
      "ĠLiá»ĩt": 7664,
      "ĠGá»Ĺ": 7665,
      "Ġsáº¡t": 7666,
      "ĠbÃ³i": 7667,
      "Ġä¸į": 7668,
      "å®": 7669,
      "iger": 7670,
      "ĠxoÃ¡y": 7671,
      "ĠlÃ¬": 7672,
      "¸ı": 7673,
      "ViÃªm": 7674,
      "Ġtháº¯m": 7675,
      "ĠtrÃ³i": 7676,
      "Ġ^": 7677,
      "mo": 7678,
      "ĠnÃ³c": 7679,
      "ĠOs": 7680,
      "Cáº§u": 7681,
      "Ġlá»Ŀ": 7682,
      "order": 7683,
      "ista": 7684,
      "ef": 7685,
      "Giá»Ŀ": 7686,
      "ĠCSVN": 7687,
      "Ġngáº©ng": 7688,
      "Ġ84": 7689,
      "áº¢I": 7690,
      "issan": 7691,
      "Váº¥n": 7692,
      "Song": 7693,
      "Ġsáº¡m": 7694,
      "ĠFan": 7695,
      "ĠTrans": 7696,
      "%).": 7697,
      "ĠKo": 7698,
      "ĠQuÃ¡ch": 7699,
      "ĠsÃ¡o": 7700,
      "ĠCÃłng": 7701,
      "olog": 7702,
      "ĠKhÃºc": 7703,
      "Ġnuá»ĳi": 7704,
      "phong": 7705,
      "ĠBlue": 7706,
      "Ġnhe": 7707,
      "Ġgiá»ı": 7708,
      "ĠAB": 7709,
      "ÄĲÃ´i": 7710,
      "ĠkÃŃp": 7711,
      "ĠvÃ¢ng": 7712,
      "Ġrem": 7713,
      "ĠBÆ°u": 7714,
      "ĠVáº«n": 7715,
      "Ġbuá»ĳt": 7716,
      "ĠMTV": 7717,
      "ĠLá»¯": 7718,
      "Ġghe": 7719,
      "%),": 7720,
      "ĠFed": 7721,
      "Báº£ng": 7722,
      "ĠNhan": 7723,
      "KÃŃnh": 7724,
      "ĠThá»Ľi": 7725,
      "ĠDá»ħ": 7726,
      "ĠRam": 7727,
      "ĠChevrolet": 7728,
      "Ġchá»įi": 7729,
      "ala": 7730,
      "ĠxoÃ¡": 7731,
      "ĠHer": 7732,
      "ĠTháº¡c": 7733,
      "âĻ": 7734,
      "TÃ³m": 7735,
      "ĠMáº¡i": 7736,
      "ĠÃĲáº¡i": 7737,
      "ĠQuyÃªn": 7738,
      "Gh": 7739,
      "Ġ71": 7740,
      "burg": 7741,
      "ĠtrÆ°á»Ľng": 7742,
      "há»įc": 7743,
      "HÃ£ng": 7744,
      "ĠvÄĥng": 7745,
      "ĠNV": 7746,
      "Ġ]": 7747,
      "ĠBÃª": 7748,
      "ĠPe": 7749,
      "Ġmix": 7750,
      "Tráº»": 7751,
      "ÄĲTV": 7752,
      "ĠNar": 7753,
      "ĠThÃ©p": 7754,
      "ule": 7755,
      "ĠArch": 7756,
      "Rá»ĵi": 7757,
      "web": 7758,
      "ĠthuÃ´": 7759,
      "Ġvá»¯a": 7760,
      "ĠMen": 7761,
      "ĠEbook": 7762,
      "ĦN": 7763,
      "sk": 7764,
      "arch": 7765,
      "Tinh": 7766,
      "ĠrÄĥn": 7767,
      "oid": 7768,
      "ĠLuÃ´n": 7769,
      "ĠHuÃ¢n": 7770,
      "ĠSX": 7771,
      "Ġbá»ĭt": 7772,
      "âĢĻ,": 7773,
      "ĠHoan": 7774,
      "Ġbáº§y": 7775,
      "ĠAI": 7776,
      "tÄĥng": 7777,
      "Ġvung": 7778,
      "...,": 7779,
      "Ġlá»¯": 7780,
      "Ġcabin": 7781,
      "ats": 7782,
      "Ð¼": 7783,
      "ĠFlor": 7784,
      "ĠHOT": 7785,
      ")âĢ¦": 7786,
      "Ġtá»¥y": 7787,
      "lam": 7788,
      "ĠMÃ£o": 7789,
      "ĠOcean": 7790,
      "QuÃ¡": 7791,
      "ĠSM": 7792,
      "ago": 7793,
      "board": 7794,
      "mobile": 7795,
      "RA": 7796,
      "Ġgiá»¥": 7797,
      "uss": 7798,
      "ĠBCH": 7799,
      "ĠmÃªnh": 7800,
      "Ġkhá»ī": 7801,
      "ĠMáº§m": 7802,
      "ĠHigh": 7803,
      "ĠngÃ³": 7804,
      "dong": 7805,
      "tech": 7806,
      "aint": 7807,
      "Ġ76": 7808,
      "DÃ²ng": 7809,
      "ĠGam": 7810,
      "Ġåį": 7811,
      "ĠHal": 7812,
      "Ġkhiáº¿m": 7813,
      "Báº¯c": 7814,
      "ĠYamaha": 7815,
      "ĠÄĳÆ°": 7816,
      "ĠWhite": 7817,
      "ĠthuÃ¢": 7818,
      "can": 7819,
      "ĠPost": 7820,
      "ĠNgÆ°u": 7821,
      "Ġvá»Ŀ": 7822,
      "HT": 7823,
      "ĠPas": 7824,
      "å¹": 7825,
      "oom": 7826,
      "Äĳa": 7827,
      "ĠCollagen": 7828,
      "2000": 7829,
      "ĠVá»įng": 7830,
      "ĠTráº£i": 7831,
      "Ġcopy": 7832,
      "ï¸ı": 7833,
      "row": 7834,
      "ĠPhÃ³ng": 7835,
      "Ġhá»§": 7836,
      "GDVN": 7837,
      "Ġap": 7838,
      "Ġdá»©a": 7839,
      "umb": 7840,
      "ĠNgÆ°": 7841,
      "ĠâĢĭâĢĭ": 7842,
      "Sá»¯a": 7843,
      "ĠChiáº¿t": 7844,
      "Ġgá»įt": 7845,
      "ĠChiÃªu": 7846,
      "ece": 7847,
      "Giao": 7848,
      "ĠCard": 7849,
      "Ġphen": 7850,
      "ĠmÃ©o": 7851,
      "Ġchan": 7852,
      "Ġä¸įbáº¥t": 7853,
      "ĠTráº£": 7854,
      "otov": 7855,
      "ahoo": 7856,
      "Ġthread": 7857,
      "ĠMilan": 7858,
      "ĠlÃ¬a": 7859,
      "ĠHá»Ļp": 7860,
      "ira": 7861,
      "view": 7862,
      "Ġyoga": 7863,
      "COM": 7864,
      "gar": 7865,
      "ĠNgÃ£": 7866,
      "Ġtua": 7867,
      "å¼": 7868,
      "chá»§": 7869,
      "ĠBOT": 7870,
      "ĠÄĳoa": 7871,
      "ĠIphone": 7872,
      "ĠhÃ¡o": 7873,
      "ĠBox": 7874,
      "RiÃªng": 7875,
      "ĠCle": 7876,
      "ĠthÃ¢u": 7877,
      "ye": 7878,
      "ÄĲÃªm": 7879,
      "ĠlÃµm": 7880,
      "ĠPhá»ĳi": 7881,
      "ĠSC": 7882,
      "Â®": 7883,
      "ĠTÃ³c": 7884,
      "Ġkhang": 7885,
      "ĠâĢ¦.": 7886,
      "ĠCá»Ń": 7887,
      "Tiáº¿n": 7888,
      "Ġbox": 7889,
      "ĠTi": 7890,
      "ĠtrÆ°": 7891,
      "ĠÃ¹n": 7892,
      "ĠLÃ²ng": 7893,
      "ĠCáº£i": 7894,
      "ĠSá»Ńu": 7895,
      "Ġvip": 7896,
      "ru": 7897,
      "ĠlÃ³c": 7898,
      "ĠSÃ¢m": 7899,
      "ĠThuá»·": 7900,
      "GP": 7901,
      "Doanh": 7902,
      "Ġcap": 7903,
      "Âº": 7904,
      "ĠbÃºa": 7905,
      "chÃºng": 7906,
      "Ġhormone": 7907,
      "edan": 7908,
      "ĠDownload": 7909,
      "Tube": 7910,
      "ÃģY": 7911,
      "YÃªu": 7912,
      "ĠcÄĥm": 7913,
      "ĠThan": 7914,
      "Ġhan": 7915,
      "táº¡i": 7916,
      "ĠMS": 7917,
      "ÃĻ": 7918,
      "ĠTD": 7919,
      "ĠFree": 7920,
      "Ġngáº¡t": 7921,
      "ĠNÃ´m": 7922,
      "Ġtá»ĩp": 7923,
      "ĠJuventus": 7924,
      "yo": 7925,
      "ĠSIM": 7926,
      "ĠKÃªnh": 7927,
      "ĠGel": 7928,
      "ÄĲa": 7929,
      "ĠXu": 7930,
      "ĠItaly": 7931,
      "Ġgiáº¥m": 7932,
      "ĠNik": 7933,
      "ĠZen": 7934,
      "ingfa": 7935,
      "phi": 7936,
      "á»°C": 7937,
      "its": 7938,
      "ese": 7939,
      "ĠCÃ¡m": 7940,
      "2004": 7941,
      "ĠGolf": 7942,
      "agram": 7943,
      "ĠdÃ¨": 7944,
      "Sh": 7945,
      "ĠkhoÃ¡t": 7946,
      "Iá»ĨU": 7947,
      "Ġtháº³m": 7948,
      "Ġná»Ľi": 7949,
      "ĠGhi": 7950,
      "ĠÃºt": 7951,
      "****": 7952,
      "NgÆ°Æ¡i": 7953,
      "ĠPhot": 7954,
      "Ġ87": 7955,
      "ĠCat": 7956,
      "ĠNhiá»ĩm": 7957,
      "ĠBook": 7958,
      "ĠMor": 7959,
      "ĠSA": 7960,
      "PTNT": 7961,
      "ĠLÃĢ": 7962,
      "Ġmiá»ĩt": 7963,
      "Ġ77": 7964,
      "Ġbiáº¿u": 7965,
      "âĢ¦..": 7966,
      "ange": 7967,
      "Nghá»ĭ": 7968,
      "Äĳáº§u": 7969,
      "SA": 7970,
      "ĠSub": 7971,
      "ĠDig": 7972,
      "ival": 7973,
      "ĠcÃ²": 7974,
      "ĠMÆ¡": 7975,
      "ĠChÃ¡u": 7976,
      "],": 7977,
      "oph": 7978,
      "Ġngá»Ŀi": 7979,
      "ĠOffice": 7980,
      "amond": 7981,
      "ĠKHÃĶNG": 7982,
      "ĠTIN": 7983,
      "ĠphÃ¡ch": 7984,
      "ĠthÃ¡n": 7985,
      "ĠTel": 7986,
      "lobal": 7987,
      "gg": 7988,
      "hai": 7989,
      "Ġnháº¹n": 7990,
      "Ġ000": 7991,
      "ĠmiÃª": 7992,
      "ulin": 7993,
      "Tuá»ķi": 7994,
      "ÄĲá»įc": 7995,
      "Ġwh": 7996,
      "PháºŃt": 7997,
      "yan": 7998,
      "ĠRep": 7999,
      "CÃ¡": 8000,
      "ĠngÃłng": 8001,
      "Káº¿": 8002,
      "amine": 8003,
      "å¥": 8004,
      "ÄĲÆ¡n": 8005,
      "khu": 8006,
      "Lá»ĭch": 8007,
      "ĠLau": 8008,
      "ĠSL": 8009,
      "otovietnam": 8010,
      "MÃłn": 8011,
      "vo": 8012,
      "Ġ3000": 8013,
      "0000": 8014,
      "UN": 8015,
      "ĠLight": 8016,
      "TE": 8017,
      "Ġsanotovietnam": 8018,
      "back": 8019,
      "ĠrÃ¹a": 8020,
      "ThÆ°á»Ŀng": 8021,
      "ĠKe": 8022,
      "ĠTrÃ¢n": 8023,
      "ÌĢ,": 8024,
      "ĠBol": 8025,
      "GVN": 8026,
      "IG": 8027,
      "Äĳi": 8028,
      "ĠhÃ¡n": 8029,
      "Ġchuá»Ļc": 8030,
      "ĠphÆ°á»£ng": 8031,
      "cao": 8032,
      "ĠInn": 8033,
      "ren": 8034,
      "Ġenz": 8035,
      "ĠsÃºp": 8036,
      "ĠngÃ³i": 8037,
      "Ġyáº¿m": 8038,
      "iber": 8039,
      "Ġshare": 8040,
      "åĽ¾": 8041,
      "ĠBuilding": 8042,
      "Ġåı": 8043,
      "ĠKhá»ķng": 8044,
      "áº¾T": 8045,
      "á»®": 8046,
      "ĠnÃ£y": 8047,
      "treet": 8048,
      "get": 8049,
      "ĠBÃ´ng": 8050,
      "ĠVAT": 8051,
      "ĠnÄĥ": 8052,
      "ĠTÆ°á»£ng": 8053,
      "táº¥n": 8054,
      "Ġá»©": 8055,
      "ĠgiÆ°": 8056,
      "ĠAss": 8057,
      "mon": 8058,
      "Ġhen": 8059,
      "Ġpháº«n": 8060,
      "ĠnhÆ¡": 8061,
      "ĠMini": 8062,
      "ĠNháº±m": 8063,
      "Ġbá»į": 8064,
      "Index": 8065,
      "tho": 8066,
      "ĠHÃ¨": 8067,
      "ĠOut": 8068,
      "ĠBy": 8069,
      "Ġseries": 8070,
      "Cáº£nh": 8071,
      "ider": 8072,
      "ĠsuÃ´n": 8073,
      "ĠUng": 8074,
      "Háº¯n": 8075,
      "gan": 8076,
      "bour": 8077,
      "tuáº§n": 8078,
      "Ġcá»Ļi": 8079,
      "Ġlá»¥y": 8080,
      "ĠGiÃły": 8081,
      "ĠSoi": 8082,
      "Ġdien": 8083,
      "æ¸": 8084,
      "ĠArt": 8085,
      "Ġhá»ĳc": 8086,
      "Ġ1995": 8087,
      "ĠCPU": 8088,
      "Má»Ł": 8089,
      "Ġbá»«a": 8090,
      "ĠTur": 8091,
      "ĠCoc": 8092,
      "kinh": 8093,
      "Ġar": 8094,
      "ĠMichael": 8095,
      "Ġtrá»ķ": 8096,
      "trÃªn": 8097,
      "emon": 8098,
      "ĠkhÃ³e": 8099,
      "Ġ1998": 8100,
      "á»ĬCH": 8101,
      "Láº¥y": 8102,
      "ĠABS": 8103,
      "chen": 8104,
      "ĠgÃ´": 8105,
      "ĠAmer": 8106,
      "á»ĺI": 8107,
      "Ġngá»ı": 8108,
      "ĠVictoria": 8109,
      "brid": 8110,
      "ĠThá»ĭt": 8111,
      "ĠVincity": 8112,
      "Ġngá»¥y": 8113,
      "Ġkhong": 8114,
      "win": 8115,
      "ĠGioan": 8116,
      "ĠBiáº¿n": 8117,
      "ĠHÃło": 8118,
      "Cá»©": 8119,
      "ĠpH": 8120,
      "ĠMÃ¡c": 8121,
      "ĠLouis": 8122,
      "uke": 8123,
      "Ġngáº«m": 8124,
      "anel": 8125,
      "ĠSak": 8126,
      "Ġhuá»ĩ": 8127,
      "ÃĬU": 8128,
      "ĠtrÃ³c": 8129,
      "Ġsiáº¿t": 8130,
      "ĠFB": 8131,
      "PA": 8132,
      "ĠnÃ¨": 8133,
      "doc": 8134,
      "GÄĲ": 8135,
      "Book": 8136,
      "MÃ³n": 8137,
      "âĢĿâĢ¦": 8138,
      "æĹ": 8139,
      "ĠÄĳÃ²": 8140,
      "ĠBon": 8141,
      "ĠYouTube": 8142,
      "wa": 8143,
      "vÃŃ": 8144,
      ")...": 8145,
      "ĠæĽ": 8146,
      "Ġtá»īa": 8147,
      "ĠSchool": 8148,
      "nham": 8149,
      "Ġnick": 8150,
      "ĠTIáº¾": 8151,
      "ĠNhÆ°á»¡ng": 8152,
      "ĠWifi": 8153,
      "ĠAR": 8154,
      "HÄĲ": 8155,
      "ĠOm": 8156,
      "ĠCore": 8157,
      "ĠArab": 8158,
      "ĠHáº¡ng": 8159,
      "ĠHit": 8160,
      "ĠchÃ¡t": 8161,
      "Ġmá»³": 8162,
      "Ar": 8163,
      "Ġliáº¿m": 8164,
      "ĠTá»µ": 8165,
      "ĠTá»įa": 8166,
      "ĠAuto": 8167,
      "ĠTá»«ng": 8168,
      "ĠCÃ¹": 8169,
      "ken": 8170,
      "Ġ2030": 8171,
      "Ġbung": 8172,
      "Quáº£": 8173,
      "ĠGháº¿": 8174,
      "360": 8175,
      "ĠnhÃ´": 8176,
      "Ad": 8177,
      "Wh": 8178,
      "ĠMTTQ": 8179,
      "ĠSum": 8180,
      "Ġ1992": 8181,
      "ĠnÃ´i": 8182,
      "Ġyour": 8183,
      "ĠTaxi": 8184,
      "ĠHuawei": 8185,
      "243": 8186,
      "Ġdep": 8187,
      "Ġchá»«": 8188,
      "Ġlim": 8189,
      "ĠÄĲáº§m": 8190,
      "Ġluyáº¿n": 8191,
      "cam": 8192,
      "cow": 8193,
      "ÑĮ": 8194,
      "Ġgiá»ģng": 8195,
      "OC": 8196,
      "Ġcty": 8197,
      "ĠNT": 8198,
      "báº£n": 8199,
      "++": 8200,
      "ĠMáº«n": 8201,
      "Ġhcm": 8202,
      "KhÃ¡c": 8203,
      "Ġandroid": 8204,
      "hiá»ĩn": 8205,
      "ĠSar": 8206,
      "Ġ83": 8207,
      "PhiÃªn": 8208,
      "ĠChina": 8209,
      "ĠÄĲáº¯c": 8210,
      "Ġcá»¥t": 8211,
      "Truyá»ĩn": 8212,
      "ĠÄĲá»ĺ": 8213,
      "Ġlá»ģu": 8214,
      "Ġdáº§m": 8215,
      "97": 8216,
      "Ġmat": 8217,
      "trang": 8218,
      "ĠAf": 8219,
      "Kem": 8220,
      "tÃªn": 8221,
      "ret": 8222,
      "ys": 8223,
      "ĠCáº§m": 8224,
      "ĠNgÆ°ng": 8225,
      "ĠÄĳáº¥ng": 8226,
      "ĠDÆ°á»¡ng": 8227,
      "Ġá»Ķ": 8228,
      "NÃły": 8229,
      "ĠDragon": 8230,
      "ĠGV": 8231,
      "Ġadmin": 8232,
      "ĠTravel": 8233,
      "Ġ74": 8234,
      "thiÃªn": 8235,
      "Ġ1997": 8236,
      "Ġkhoáº¯n": 8237,
      "Ġgang": 8238,
      "nes": 8239,
      "BÃŃ": 8240,
      "Ġins": 8241,
      "ĠtuyÃª": 8242,
      "á»¨ng": 8243,
      "ĠtÆ¡i": 8244,
      "Láº¡i": 8245,
      "ĠSur": 8246,
      "ever": 8247,
      "ĠAPEC": 8248,
      "cript": 8249,
      "åı": 8250,
      "ĠÄĳá»ĳn": 8251,
      "ĠNor": 8252,
      "fer": 8253,
      "ling": 8254,
      "Ġshowbiz": 8255,
      "ĠTor": 8256,
      "ĠUniversity": 8257,
      "LÃª": 8258,
      "ĠPac": 8259,
      "ĠDon": 8260,
      "Ð¾Ð²": 8261,
      "ĠVTC": 8262,
      "ations": 8263,
      "Ġfanpage": 8264,
      "cast": 8265,
      "ĠGuitar": 8266,
      "Ġtáº»": 8267,
      "Ġri": 8268,
      "ati": 8269,
      "TR": 8270,
      "Ġ105": 8271,
      "ĠÄĳáº«m": 8272,
      "trá»«": 8273,
      "ĠBá»ĳn": 8274,
      "Ġtráº·c": 8275,
      "Ġphao": 8276,
      "ĠFin": 8277,
      "ĠNHNN": 8278,
      "ĠRáº»": 8279,
      "Ġ97": 8280,
      "ilm": 8281,
      "ĠbÃŃch": 8282,
      "Ġsáº£": 8283,
      "mÃł": 8284,
      "Ġml": 8285,
      "ĠServer": 8286,
      "ĠFranc": 8287,
      "ĠSJC": 8288,
      "å½©": 8289,
      "Ġláº¡y": 8290,
      "Ġlá»ĳc": 8291,
      "Vin": 8292,
      "ersion": 8293,
      "ĠLá»±a": 8294,
      "cer": 8295,
      "ĠchÆ°á»Ľc": 8296,
      "verter": 8297,
      "DR": 8298,
      "INE": 8299,
      "ĠnhÃło": 8300,
      "Ġráº§m": 8301,
      "Ġmiáº¿u": 8302,
      "ĠLos": 8303,
      "láº§n": 8304,
      "reat": 8305,
      "ĠvÃ¹i": 8306,
      "ĠmÃŃt": 8307,
      "ĠToshi": 8308,
      "ĠThá»Ń": 8309,
      "ĠÄĲB": 8310,
      "ĠSuá»ĳi": 8311,
      "Game": 8312,
      "2003": 8313,
      "ĠHá»ĺ": 8314,
      "ison": 8315,
      "sá»Ńa": 8316,
      "Ã³e": 8317,
      "Ġlá»ĵi": 8318,
      "Ġmel": 8319,
      "ĠquÃ´": 8320,
      "ĠthÃł": 8321,
      "ĠTuyá»ģn": 8322,
      "ĠlÄĥm": 8323,
      "ĠgÃło": 8324,
      "Ġä¸Ģ": 8325,
      "ĠhÃ¡": 8326,
      "ĠquyÃªn": 8327,
      "ĠKey": 8328,
      "Ġmá»©t": 8329,
      "cÆ¡": 8330,
      "Ġmag": 8331,
      "ĠnhÃ©t": 8332,
      "apan": 8333,
      "CáºŃu": 8334,
      "ĠráºŃm": 8335,
      "Ġáº¯c": 8336,
      "Ġmá»įt": 8337,
      "ĠAV": 8338,
      "ĠrÃªu": 8339,
      "ĠThá»¥c": 8340,
      "elle": 8341,
      "OH": 8342,
      "ĠHÃłi": 8343,
      "Äĳáº·c": 8344,
      "ĠNHÃĢ": 8345,
      "ĠId": 8346,
      "Ġkali": 8347,
      "ĠÆł": 8348,
      "ĠSnap": 8349,
      "ĠLim": 8350,
      "ĠUr": 8351,
      "tv": 8352,
      "PhÃº": 8353,
      "ĠPle": 8354,
      "lywood": 8355,
      "Ġbáº©y": 8356,
      "ĠGiá»¯": 8357,
      "ĠÄĲoáº¡n": 8358,
      "set": 8359,
      "ĠgÃ¢": 8360,
      "ĠnhÃ³c": 8361,
      "ĠngÃ¡n": 8362,
      "ĠPoly": 8363,
      "ĠBlock": 8364,
      "esel": 8365,
      "Ġlogic": 8366,
      "ĠPol": 8367,
      "VOV": 8368,
      "Ġ93": 8369,
      "ĠPhÃ¡": 8370,
      "ĠCanon": 8371,
      "ĠtrÃ¡": 8372,
      "isco": 8373,
      "ĠInox": 8374,
      "ĠrÃªn": 8375,
      "thÆ°á»Ŀng": 8376,
      "Ġ108": 8377,
      "93": 8378,
      "ĠsÃ¹ng": 8379,
      "ĠMobiFone": 8380,
      "ĠCá»Ŀ": 8381,
      "BÃ¡nh": 8382,
      "oma": 8383,
      "ĠLat": 8384,
      "Ġstyle": 8385,
      "ĠMoon": 8386,
      "Ġnil": 8387,
      "ĠlÃºng": 8388,
      "ĠquáºŃt": 8389,
      "PH": 8390,
      "Ĺı": 8391,
      "ĠHáº¯c": 8392,
      "chÆ°a": 8393,
      "ĠCit": 8394,
      "TÃ¢m": 8395,
      "ĠKiá»ĩn": 8396,
      "ĠSeries": 8397,
      "Tháº¥y": 8398,
      "TÃ¢y": 8399,
      "Ġgio": 8400,
      "ĠPop": 8401,
      "ĠChiá»ĥu": 8402,
      "icÃ´": 8403,
      "La": 8404,
      "inch": 8405,
      "MO": 8406,
      "ĠHuyáº¿t": 8407,
      "á»ľ": 8408,
      "Ġtrá»ı": 8409,
      "VTV": 8410,
      "ĠRáº¡ch": 8411,
      "Ġváº«y": 8412,
      "ĠnhÄ©": 8413,
      "ĠVNCH": 8414,
      "ĠhÅ©": 8415,
      "94": 8416,
      "ĠRub": 8417,
      "Ġneo": 8418,
      "ĠHAG": 8419,
      "Tháº§y": 8420,
      "ĠLá»ĩnh": 8421,
      "ĠsÃło": 8422,
      "ĠMoscow": 8423,
      "Long": 8424,
      "ĠCTCP": 8425,
      "1000": 8426,
      "Ġthis": 8427,
      "ĠLÃ£ng": 8428,
      "Posted": 8429,
      "Ġnáºµng": 8430,
      "ĠxÃª": 8431,
      "Thiáº¿u": 8432,
      "the": 8433,
      "Hu": 8434,
      "XX": 8435,
      "Ġnem": 8436,
      "ĠcÃ´i": 8437,
      "Æ¯á»ļC": 8438,
      "ĠÄĳá»±c": 8439,
      "ĠStore": 8440,
      "dep": 8441,
      "ĠbÃŃt": 8442,
      "Ġhom": 8443,
      "NÃłng": 8444,
      "Ġgold": 8445,
      "ĠèĢ": 8446,
      "Ġray": 8447,
      "NgÃ¢n": 8448,
      "ĠTB": 8449,
      "ĠÃĬ": 8450,
      "Chuyá»ĥn": 8451,
      "á»¨C": 8452,
      "Ġsite": 8453,
      "ĠNiáº¿t": 8454,
      "Cha": 8455,
      "ĠZing": 8456,
      "ĠÎ": 8457,
      "Bá»ĭ": 8458,
      "Ġ91": 8459,
      "ĠRÆ°á»£u": 8460,
      "Minh": 8461,
      "NA": 8462,
      "á»Ī": 8463,
      "rogen": 8464,
      "istics": 8465,
      "ĠLove": 8466,
      "ffee": 8467,
      "giáº£i": 8468,
      "ĠVÄ©": 8469,
      "yÃªu": 8470,
      "umin": 8471,
      "ĠBosch": 8472,
      "Ġéģ": 8473,
      "tinh": 8474,
      "Ġsá»§ng": 8475,
      "ĠhÃ£nh": 8476,
      "cháº¥t": 8477,
      "auty": 8478,
      "lor": 8479,
      "ĠnhÃ¡": 8480,
      "kbps": 8481,
      "ĠNhÆ°á»£c": 8482,
      "Ġä»": 8483,
      "ĠTáºłI": 8484,
      "Ġoai": 8485,
      "Ġur": 8486,
      "ĠmÃ¨": 8487,
      "ĠTuÃ¢n": 8488,
      "LE": 8489,
      "ĠFort": 8490,
      "ender": 8491,
      "999": 8492,
      "ĠLÃ¡i": 8493,
      "ager": 8494,
      "Ġtag": 8495,
      "ĠVietjet": 8496,
      "Há»ĵi": 8497,
      "Shop": 8498,
      "Ġout": 8499,
      "âĢĺ": 8500,
      "Ġsáº£o": 8501,
      "ING": 8502,
      "cÅ©ng": 8503,
      "ĠVang": 8504,
      "Ġ1996": 8505,
      "ĠgÄĥ": 8506,
      "ĠtrÃºt": 8507,
      "ĠNissan": 8508,
      "acute": 8509,
      "ĠCá»±": 8510,
      "Ġ1980": 8511,
      "ĠDub": 8512,
      "Ġngáº©n": 8513,
      "ĠPort": 8514,
      "HPGVN": 8515,
      "Ghi": 8516,
      "Ð´": 8517,
      "Ġtanh": 8518,
      "ĠFo": 8519,
      "XB": 8520,
      "ÌĤ": 8521,
      "ĠTá»ĭch": 8522,
      "ĠSá»Ĳ": 8523,
      "ĠâĤ«": 8524,
      "EE": 8525,
      "Ġquáº¥t": 8526,
      "ĠCNC": 8527,
      "ĠJul": 8528,
      "ÄĤNG": 8529,
      "ĠHáº¡n": 8530,
      "ĠDá»±a": 8531,
      "ĠLenovo": 8532,
      "¦Ļ": 8533,
      "ĠchÃ³t": 8534,
      "vard": 8535,
      "Ġteam": 8536,
      "à¹": 8537,
      "ĠngÃ²i": 8538,
      "ĠchÃŃch": 8539,
      "iana": 8540,
      "ĠSO": 8541,
      "ĠrÄĥ": 8542,
      "NÆ¡i": 8543,
      "Ãī": 8544,
      "Cháº¿": 8545,
      "234": 8546,
      "ĠCÃºp": 8547,
      "obi": 8548,
      "plant": 8549,
      "ĠSEA": 8550,
      "Ġtáº¯n": 8551,
      "Ġ115": 8552,
      "ĠBID": 8553,
      "ĠMov": 8554,
      "ĠVá»ĳn": 8555,
      "Ġion": 8556,
      "ĠÃºp": 8557,
      "ĠGeor": 8558,
      "''": 8559,
      "Ġsáº¯n": 8560,
      "ĠsÃ³i": 8561,
      "Ġgiá»¥c": 8562,
      "cent": 8563,
      "px": 8564,
      "Ġcarbon": 8565,
      "ÃĴ": 8566,
      "ĠchÆ°á»Łng": 8567,
      "Ġvest": 8568,
      "ĠÄĲau": 8569,
      "mÃ¬nh": 8570,
      "asy": 8571,
      "enger": 8572,
      "tri": 8573,
      "ĠAudio": 8574,
      "Ġtá»Ļt": 8575,
      "ĠInstagram": 8576,
      "ĠTitan": 8577,
      "Ġoto": 8578,
      "ĠRÃµ": 8579,
      "ĠÄĲáº³ng": 8580,
      "ĠKhiÃªm": 8581,
      "Ġ1800": 8582,
      "SiÃªu": 8583,
      "ĠMir": 8584,
      "ĠçĦ": 8585,
      "á»¤C": 8586,
      "ThÆ°": 8587,
      "ĠÄĲá»īnh": 8588,
      "Ġsexy": 8589,
      "Ġhá»©c": 8590,
      "NgÃ´i": 8591,
      "ĠChá»ĵng": 8592,
      "á»ļI": 8593,
      "ME": 8594,
      "Ġthen": 8595,
      "ĠHÃ³c": 8596,
      "ÄĲÃ´ng": 8597,
      "Ġ^^": 8598,
      "Ġsá»į": 8599,
      "edit": 8600,
      "AA": 8601,
      "ĠSMS": 8602,
      "101": 8603,
      "ĠYoung": 8604,
      "ĠNob": 8605,
      "ĠBC": 8606,
      "ĠOai": 8607,
      "ages": 8608,
      "aku": 8609,
      "ĠTex": 8610,
      "ĠGÃ³c": 8611,
      "riday": 8612,
      "ĠRÄĥng": 8613,
      "Ġthá»ĳn": 8614,
      "ĠTrÃ¢m": 8615,
      "tÃ¡t": 8616,
      "bl": 8617,
      "Ġnáº¡o": 8618,
      "ĠrÆ°á»¡i": 8619,
      "ĠÄĲÆ°Æ¡ng": 8620,
      "ĠRock": 8621,
      "XÃ©t": 8622,
      "tim": 8623,
      "ĠtÃ©": 8624,
      "ĠTriáº¿t": 8625,
      "Ġ1994": 8626,
      "á»Į": 8627,
      "ĠPhanx": 8628,
      "ple": 8629,
      "ĠComments": 8630,
      "Ġsáº§n": 8631,
      "ĠFace": 8632,
      "Ġáº¯t": 8633,
      "chu": 8634,
      "Press": 8635,
      "Ġquáº§ng": 8636,
      "thuá»Ļc": 8637,
      "hoa": 8638,
      "áºº": 8639,
      "pol": 8640,
      "ĠOf": 8641,
      "irst": 8642,
      "aker": 8643,
      "itr": 8644,
      "Má»©c": 8645,
      "Ġváº£y": 8646,
      "ĠkÃ¨": 8647,
      "ĠSK": 8648,
      "ĠAudi": 8649,
      "ĠvÃ£n": 8650,
      "Ġ1993": 8651,
      "ottenham": 8652,
      "ïĢ": 8653,
      "ĠCá»¦": 8654,
      "Vn": 8655,
      "çİ": 8656,
      "Ġháº¯t": 8657,
      "ĠNano": 8658,
      "ĠDiamond": 8659,
      "Ġ170": 8660,
      "ĠVo": 8661,
      "ĠtÄĥ": 8662,
      "ĠReg": 8663,
      "Ġmica": 8664,
      "hÃ´": 8665,
      "Æ°á»Ľu": 8666,
      "ĠJava": 8667,
      "ĠNá»ķi": 8668,
      "Ġvin": 8669,
      "oint": 8670,
      "Tráº£i": 8671,
      "OP": 8672,
      "pi": 8673,
      "ĠBR": 8674,
      "tháº¿": 8675,
      "Ìī.": 8676,
      "ĠBur": 8677,
      "raph": 8678,
      "ĠCC": 8679,
      "ÃĢNH": 8680,
      "Kiá»ĥm": 8681,
      "Ká»¹": 8682,
      "ĠCáº©n": 8683,
      "Link": 8684,
      "ĠHat": 8685,
      "ĠSE": 8686,
      "no": 8687,
      "Thi": 8688,
      "Ġá»ĵ": 8689,
      "Camera": 8690,
      "ĠColle": 8691,
      "ĠKáº¡n": 8692,
      "ĠHen": 8693,
      "tháº§n": 8694,
      "ĠTá»Ŀ": 8695,
      "ThÆ°a": 8696,
      "Ġsub": 8697,
      "Ġcal": 8698,
      "ĠMá»ĩnh": 8699,
      "res": 8700,
      "ĠTW": 8701,
      "ĠÆ°Æ¡m": 8702,
      "ĠVietcombank": 8703,
      "SÆ¡n": 8704,
      "ĠMall": 8705,
      "ĠJW": 8706,
      "Giáº¥y": 8707,
      "Ġä¸Ģnháº¥t": 8708,
      "Hoáº¡t": 8709,
      "Máº¥y": 8710,
      "Ġbook": 8711,
      "nd": 8712,
      "ĠGHPGVN": 8713,
      "ift": 8714,
      "ĠCháº¥n": 8715,
      "ĠTab": 8716,
      "ĠbÃ¨o": 8717,
      "ĠLÃ´i": 8718,
      "ChÃºc": 8719,
      "Ġbáº£": 8720,
      "áº¤P": 8721,
      "ĠExpress": 8722,
      "earch": 8723,
      "Ġcá»§i": 8724,
      "Ġtrá»ĩ": 8725,
      "ĠÄĲK": 8726,
      "ĠVÆ°á»£ng": 8727,
      "Ġvv": 8728,
      "Ġsup": 8729,
      "ĠCáº¥u": 8730,
      "ĠGÃ³i": 8731,
      "MÃł": 8732,
      "ds": 8733,
      "Ġngháº¹n": 8734,
      "Ġmá»ģ": 8735,
      "Ġvun": 8736,
      "Ġ1945": 8737,
      "ĠGáº·p": 8738,
      "ĠSat": 8739,
      "Ġ1970": 8740,
      "Äĳiá»ģu": 8741,
      "exus": 8742,
      "LS": 8743,
      "aily": 8744,
      "ÃĤM": 8745,
      "ĠCÄĲV": 8746,
      "ĠvÃªnh": 8747,
      "91": 8748,
      "NÃ¢ng": 8749,
      "Ġxáº¥p": 8750,
      "ĠPak": 8751,
      "othi": 8752,
      "ĠtrÆ°á»£ng": 8753,
      "ÄĲÃ¡ng": 8754,
      "Ká»³": 8755,
      "iku": 8756,
      "Ġcasino": 8757,
      "ĠIT": 8758,
      "ĠMao": 8759,
      "ĠXingfa": 8760,
      "ĠToshiba": 8761,
      "ĠColor": 8762,
      "ping": 8763,
      "ĠNá»ģn": 8764,
      "Ġhosting": 8765,
      "Ġ),": 8766,
      "ĠEVN": 8767,
      "ble": 8768,
      "Ġbik": 8769,
      "Há»Ĺ": 8770,
      "ÄĲTVLVH": 8771,
      "ĠCÃ¡nh": 8772,
      "ÄĲá»Ļ": 8773,
      "ĠGian": 8774,
      "BH": 8775,
      "Man": 8776,
      "è®": 8777,
      "ĠPho": 8778,
      "ĠBin": 8779,
      "ĠtoÃ¡i": 8780,
      "Ġmac": 8781,
      "ÃģCH": 8782,
      "ĠNap": 8783,
      "ĠráºŃp": 8784,
      "ĠHim": 8785,
      "Ġhá»Ļt": 8786,
      "ĠâĻ": 8787,
      "tai": 8788,
      "thÃ´ng": 8789,
      "æ¸¯": 8790,
      "ĠMáº¡t": 8791,
      "ĠLum": 8792,
      "á»Ģ": 8793,
      "ÄĲang": 8794,
      "Web": 8795,
      "ĠURL": 8796,
      "ustin": 8797,
      "Ġ!!!": 8798,
      ",âĢ¦.": 8799,
      "Ġrep": 8800,
      "Ġtoáº£": 8801,
      "hire": 8802,
      "fin": 8803,
      "ĠPhaolÃ´": 8804,
      "May": 8805,
      "Ġphat": 8806,
      "hot": 8807,
      "ĠBáº§u": 8808,
      "ĠAD": 8809,
      "ä»": 8810,
      "ĠhÃ¢": 8811,
      "ĠTráº¡i": 8812,
      "Ġwap": 8813,
      "den": 8814,
      "ĠCá»¦A": 8815,
      "ids": 8816,
      "Ġtruyen": 8817,
      "ĠMeg": 8818,
      "ĠPN": 8819,
      "ĠPháº£n": 8820,
      "Ġå¸": 8821,
      "EU": 8822,
      "ĠShar": 8823,
      "Ġtennis": 8824,
      "ĠChÄĥn": 8825,
      "ĠThom": 8826,
      "ĠDá»±ng": 8827,
      "ĠXV": 8828,
      "Ġok": 8829,
      "ĠhÆ°Æ¡u": 8830,
      "Ġbody": 8831,
      "eland": 8832,
      "ĠrÆ¡m": 8833,
      "ĠxÃ¡o": 8834,
      "ĠPhanxicÃ´": 8835,
      "Æ°á»Ľn": 8836,
      "ĠNe": 8837,
      "uters": 8838,
      "Ġmin": 8839,
      "Ġlá»±u": 8840,
      "Ġnao": 8841,
      "Ġá»ĳ": 8842,
      "KÃŃch": 8843,
      "ĠtÃ²i": 8844,
      "ĠTao": 8845,
      "ĠKore": 8846,
      "dney": 8847,
      "Ġfr": 8848,
      "Ġ1080": 8849,
      "Quá»ĳc": 8850,
      "ĠExcel": 8851,
      "ĠPu": 8852,
      "ĠTÃło": 8853,
      "Nhanh": 8854,
      "ĠTX": 8855,
      "ĠBá»Ļt": 8856,
      "ĠOpen": 8857,
      "Ġsá»§a": 8858,
      "Ġtriá»ģn": 8859,
      "Ġlá»£p": 8860,
      "ots": 8861,
      "ious": 8862,
      "IF": 8863,
      "ĠBá»įn": 8864,
      "ĠLav": 8865,
      "ĠthÃ©t": 8866,
      "Ġmá»ĭ": 8867,
      "ĠNÃło": 8868,
      "Ġsá»ĩt": 8869,
      "Ġtrá»įt": 8870,
      "sáº½": 8871,
      "ÄĲH": 8872,
      "ĤN": 8873,
      "ape": 8874,
      "ĠFIFA": 8875,
      "sÆ°": 8876,
      "ĠUSA": 8877,
      "GiÃ¡m": 8878,
      "ĠThÆ°á»Łng": 8879,
      "ĠRá»Ńa": 8880,
      "Ġáº¿ch": 8881,
      "RP": 8882,
      "ĠBayern": 8883,
      "Ġtá»µ": 8884,
      "ĠgÄĥng": 8885,
      "ĠChÃŃn": 8886,
      "KhÃ³a": 8887,
      "áº¢O": 8888,
      "af": 8889,
      "of": 8890,
      "Ġmá»įng": 8891,
      "ĠvÃ¡ng": 8892,
      "Ġlaz": 8893,
      "ĠGÄĲ": 8894,
      "Báº¯t": 8895,
      "å¼Ģ": 8896,
      "ĠHollywood": 8897,
      "ĠSáº¢N": 8898,
      "DÆ°Æ¡ng": 8899,
      "asc": 8900,
      "ĠResidence": 8901,
      "HÃ²a": 8902,
      "Ġfrom": 8903,
      "Tá»įa": 8904,
      "Ġforum": 8905,
      "long": 8906,
      "?.": 8907,
      "jp": 8908,
      "ĠÄĳiáº¿u": 8909,
      "Ġnano": 8910,
      "ĠPep": 8911,
      "off": 8912,
      "ĠDiÃªn": 8913,
      "Ġ''": 8914,
      "ĠLab": 8915,
      "ĠBre": 8916,
      "áº¶T": 8917,
      "ateg": 8918,
      "ĠKangnam": 8919,
      "amilk": 8920,
      "âĢĿ:": 8921,
      "Ġdáº«u": 8922,
      "Ġdáº§y": 8923,
      "Ġsá»¡": 8924,
      "ĠComplex": 8925,
      "Ġháº¥u": 8926,
      "ĠÄĲÆ°a": 8927,
      "ĠCy": 8928,
      "báº£o": 8929,
      "ĠÃįt": 8930,
      "tiá»ģn": 8931,
      "ĠNoel": 8932,
      "ĠRobert": 8933,
      "ĠThá»¥": 8934,
      "1975": 8935,
      "edu": 8936,
      "cu": 8937,
      "Ġ188": 8938,
      "ĠAF": 8939,
      "ĠTOP": 8940,
      "enter": 8941,
      "ĠphÃłn": 8942,
      "TÃ²a": 8943,
      "IDS": 8944,
      "Ġsáº·c": 8945,
      "uel": 8946,
      "EW": 8947,
      "Ġ750": 8948,
      "ĠPacific": 8949,
      "ĠlÄĥ": 8950,
      "azz": 8951,
      "HÃłn": 8952,
      "ĠHá»ĵn": 8953,
      "BÄĲ": 8954,
      "ĠnÃ²ng": 8955,
      "ĠTHÃĶNG": 8956,
      "ology": 8957,
      "Ġfol": 8958,
      "ĠnÆ¡": 8959,
      "ĠTivi": 8960,
      "ĠTottenham": 8961,
      "Ġ304": 8962,
      "ĠRec": 8963,
      "erson": 8964,
      "Ġbá»©t": 8965,
      "Pháº¡m": 8966,
      "Ġstarted": 8967,
      "Ġsá»¥c": 8968,
      "iter": 8969,
      "ESCO": 8970,
      "vÄĥn": 8971,
      "TPO": 8972,
      "Ġcháº±ng": 8973,
      "Ġcháº¡p": 8974,
      "ĠchÃłm": 8975,
      "ĠFe": 8976,
      "ĠReuters": 8977,
      "ĠPiece": 8978,
      "Ġah": 8979,
      "á»¸": 8980,
      "ĠPhÃ¡i": 8981,
      "ĠStudio": 8982,
      "ĠÄĲá»©ng": 8983,
      "ĠQÃºy": 8984,
      "Ġkhuáº¿ch": 8985,
      "ĠFDI": 8986,
      "thiáº¿t": 8987,
      "ĠçĶ": 8988,
      "ms": 8989,
      "Trá»Ł": 8990,
      "ĠsÃ²ng": 8991,
      "pháº§n": 8992,
      "PE": 8993,
      "Giá»ĳng": 8994,
      "ĠcÆ°Æ¡": 8995,
      "ews": 8996,
      "Ġáº¡t": 8997,
      "nguyÃªn": 8998,
      "ĠPearl": 8999,
      "ander": 9000,
      "ĠbÆ°á»Ľu": 9001,
      "Vi": 9002,
      "ieng": 9003,
      "ĠVÄĲV": 9004,
      "Ġall": 9005,
      "ĠPay": 9006,
      "ĠTá»Ļi": 9007,
      "ĠPart": 9008,
      "ĠQUá»ĲC": 9009,
      "ĠBÃ´": 9010,
      "ways": 9011,
      "may": 9012,
      "ĠDáº¡y": 9013,
      "ez": 9014,
      "tent": 9015,
      "ental": 9016,
      "Dá»±a": 9017,
      "Ġest": 9018,
      "ĠCHO": 9019,
      "ĠTem": 9020,
      "ĠKháº£o": 9021,
      "right": 9022,
      "iff": 9023,
      "PhÃŃa": 9024,
      "ĠbÆ°ng": 9025,
      "achi": 9026,
      "ĠmÃ¡ng": 9027,
      "Ġdáº¿": 9028,
      "osite": 9029,
      "info": 9030,
      "ĠØ": 9031,
      "ĠtÆ°ng": 9032,
      "Ġmake": 9033,
      "ĠTU": 9034,
      "ĠHAGL": 9035,
      "ĠTexas": 9036,
      "ĠVáº·t": 9037,
      "ĠVilla": 9038,
      "ior": 9039,
      "ĠmÆ°": 9040,
      "ĠRi": 9041,
      "TrÃ¡i": 9042,
      "Ġvá»Ľ": 9043,
      "cha": 9044,
      "ĠPat": 9045,
      "ĠFrank": 9046,
      "rop": 9047,
      "Ġdáº¥n": 9048,
      "ĠNáº¥m": 9049,
      "ĠÄĲÄĥk": 9050,
      "oucher": 9051,
      "ĠTrÃ¡c": 9052,
      "ĠngÃł": 9053,
      "ĠSD": 9054,
      "ĠcÆ°á»¡i": 9055,
      "ĠDáº«n": 9056,
      "ĠLiga": 9057,
      "ĠsuÃ½t": 9058,
      "trÆ°á»Ľc": 9059,
      "ĠRu": 9060,
      "Ġgáº¯m": 9061,
      "ĠOpt": 9062,
      "Ġsedan": 9063,
      "ĠMA": 9064,
      "ÑģÑĤ": 9065,
      "ĠDáºŃt": 9066,
      "á»ķn": 9067,
      "ÄĲá»Ļng": 9068,
      "field": 9069,
      "???": 9070,
      "OA": 9071,
      "ĠSel": 9072,
      "âĿ": 9073,
      "obe": 9074,
      "ĠTrá»£": 9075,
      "ĠBel": 9076,
      "ĠDS": 9077,
      "ĠClass": 9078,
      "Ġvir": 9079,
      "ker": 9080,
      "siÃªu": 9081,
      "ĠphÆ°á»£t": 9082,
      "XP": 9083,
      "ĠÄĲÃ¡m": 9084,
      "ĠngÃ¡ch": 9085,
      "Ġváº§y": 9086,
      "ĠTÃ¡o": 9087,
      "ĠRáºŃp": 9088,
      "ĠKen": 9089,
      "hÃ¬nh": 9090,
      "ĠhoÃ¡n": 9091,
      "ĠDáº¥u": 9092,
      "Ġtráº§u": 9093,
      "ĠDA": 9094,
      "bÃł": 9095,
      "æľŁé": 9096,
      "Ġnáº·n": 9097,
      "Ġgiáº§y": 9098,
      "Ġphoto": 9099,
      "pháº£i": 9100,
      "vice": 9101,
      "ĠnhÃºn": 9102,
      "Ġæĸ": 9103,
      "ĠnÃŃu": 9104,
      "ĠGiá»įng": 9105,
      "onia": 9106,
      "ated": 9107,
      "Nháº¯c": 9108,
      "ten": 9109,
      "ĠGod": 9110,
      "tam": 9111,
      "ĠSaudi": 9112,
      "ilet": 9113,
      "ĠBas": 9114,
      "ĠÃģn": 9115,
      "ĠnÃ£": 9116,
      "ĠSydney": 9117,
      "ĠOl": 9118,
      "ĠClub": 9119,
      "ating": 9120,
      "agrave": 9121,
      "tiáº¿ng": 9122,
      "Ġpart": 9123,
      "ÙĦ": 9124,
      "ĠluÃ¢": 9125,
      "chÃŃnh": 9126,
      "ĠmÆ°á»Ľt": 9127,
      "ĠSho": 9128,
      "Tuyá»ĥn": 9129,
      "ÃģO": 9130,
      "Ġkey": 9131,
      "ĠNon": 9132,
      "ĠNav": 9133,
      "Ġbáº§n": 9134,
      "ĠxoÄĥn": 9135,
      "Ġdan": 9136,
      "ĠNÃł": 9137,
      "ĠVa": 9138,
      "ĠChá»¯a": 9139,
      "Di": 9140,
      "ĠÐ¿": 9141,
      "ĠbÃ¹i": 9142,
      "ĠDJ": 9143,
      "ĠFire": 9144,
      "ĠYoga": 9145,
      "LÃ£nh": 9146,
      "Nga": 9147,
      "Thá»ĥ": 9148,
      "oshop": 9149,
      "ĠæŃ": 9150,
      "ĠCÃ¡o": 9151,
      "Ġphan": 9152,
      "ibaba": 9153,
      "ĠWordPress": 9154,
      "WC": 9155,
      "shop": 9156,
      "ĠMÃģY": 9157,
      "ATO": 9158,
      "110": 9159,
      "ĠQuÃł": 9160,
      "ĠsÃ²": 9161,
      "Má»Ŀi": 9162,
      "inja": 9163,
      "Ġroi": 9164,
      "ĠGlobal": 9165,
      "ĠTrÃ¹ng": 9166,
      "ĠvÃ©t": 9167,
      "ĠVá»ı": 9168,
      "ĠLS": 9169,
      "ĠPre": 9170,
      "Cá»¥c": 9171,
      "ĠnÄĥn": 9172,
      "ĠJung": 9173,
      "ibank": 9174,
      "ION": 9175,
      "khá»§ng": 9176,
      "ĠthÃ²i": 9177,
      "ĠLU": 9178,
      "ema": 9179,
      "ĠEnglish": 9180,
      "ugin": 9181,
      "tá»īnh": 9182,
      "ĠtÃ¬": 9183,
      "oC": 9184,
      "bet": 9185,
      "ray": 9186,
      "ĠViv": 9187,
      "à¤": 9188,
      "Ġkheo": 9189,
      "ĠEnter": 9190,
      "Dáº§u": 9191,
      "ĠTang": 9192,
      "ĠTá»ī": 9193,
      "ĠNhÃ¢m": 9194,
      "ĠDÃłi": 9195,
      "Ġpass": 9196,
      "ĠWilli": 9197,
      "Tai": 9198,
      "ĠXH": 9199,
      "Ġcá»ĵng": 9200,
      "Báº¿p": 9201,
      "Ġchao": 9202,
      "ĠUB": 9203,
      "Ġmá»¥": 9204,
      "core": 9205,
      "thá»±c": 9206,
      "Ġ1991": 9207,
      ",.": 9208,
      "Æ°á»£m": 9209,
      "unce": 9210,
      "123": 9211,
      "Berry": 9212,
      "round": 9213,
      "hÃłng": 9214,
      "Ġread": 9215,
      "Hoáº·c": 9216,
      "Ġship": 9217,
      "Giá»¯a": 9218,
      "ĠmÃ¡ch": 9219,
      "Tuáº§n": 9220,
      "á»£c": 9221,
      "Ġ94": 9222,
      "Ġquáº©n": 9223,
      "ãĢģ": 9224,
      "UYÃĬN": 9225,
      "ather": 9226,
      "VÃ²ng": 9227,
      "ĠCuá»ĳn": 9228,
      "umi": 9229,
      "Ġet": 9230,
      "khÃ¡ch": 9231,
      "Ġdel": 9232,
      "ady": 9233,
      "XS": 9234,
      "ĠNan": 9235,
      "ĠSoc": 9236,
      "ĠVKS": 9237,
      "Ġá»Ĳng": 9238,
      "ĠTáº·c": 9239,
      "nb": 9240,
      "ĠvÃ²": 9241,
      "Ġtrá»£n": 9242,
      "ington": 9243,
      "ĠquÃ½t": 9244,
      "Ġngá»§i": 9245,
      "Hay": 9246,
      "LL": 9247,
      "Ġline": 9248,
      "Ġnáº¯n": 9249,
      "Ġ(...)": 9250,
      "ĠIQ": 9251,
      "xa": 9252,
      "Ġnot": 9253,
      "Quáº£n": 9254,
      "ĠchoÃłng": 9255,
      "ĠPen": 9256,
      "Ġreo": 9257,
      "VP": 9258,
      "nÆ°á»Ľc": 9259,
      "zz": 9260,
      "gá»ĵm": 9261,
      "ĠxÃ¹": 9262,
      "Ġá»Ĳc": 9263,
      "ĠCorp": 9264,
      "yc": 9265,
      "ĠAngeles": 9266,
      "To": 9267,
      "ĠCur": 9268,
      "otion": 9269,
      "226": 9270,
      "ĠJac": 9271,
      "ĠAk": 9272,
      "trÆ°á»Ŀng": 9273,
      "Tranh": 9274,
      "Ġoffline": 9275,
      "Ä¨": 9276,
      "Ġnilon": 9277,
      "ĠVen": 9278,
      "Ġnai": 9279,
      "Ġ111": 9280,
      "ĠGiuse": 9281,
      "ĠRS": 9282,
      "Ġreview": 9283,
      "vá»ĭ": 9284,
      "emo": 9285,
      "ĠThang": 9286,
      "ĠrÃłnh": 9287,
      "ĠPalace": 9288,
      "Ġtiá»ĩt": 9289,
      "ĠJi": 9290,
      "gáº§n": 9291,
      "Ġhand": 9292,
      "ĠBIDV": 9293,
      "minh": 9294,
      "ness": 9295,
      "ĠLife": 9296,
      "ĠDream": 9297,
      "gá»įi": 9298,
      "ember": 9299,
      "OD": 9300,
      "jo": 9301,
      "Ġtáº©u": 9302,
      "ushi": 9303,
      "lÃŃt": 9304,
      "Ġáº¤t": 9305,
      "ĠNá»ĺI": 9306,
      "Ġmá»Ľ": 9307,
      "ĠÃį": 9308,
      "bá»Ļ": 9309,
      "Ġsam": 9310,
      "cÃ¹ng": 9311,
      "ÄĳÃ¡nh": 9312,
      "Vietnam": 9313,
      "tÃŃnh": 9314,
      "áº¬P": 9315,
      "Ġmui": 9316,
      "ection": 9317,
      "ient": 9318,
      "ĠTáº§m": 9319,
      "ĠMak": 9320,
      "ĠAndre": 9321,
      "bÃłn": 9322,
      "Ġsun": 9323,
      "ĠRad": 9324,
      "Ġráº«y": 9325,
      "ĠBá»©c": 9326,
      "ĠVincom": 9327,
      "alaxy": 9328,
      "ĪĴ": 9329,
      "ĠcÃ¹": 9330,
      "ĠVá»¹": 9331,
      "ĠTrai": 9332,
      "ashion": 9333,
      "ĠnghÄ©nh": 9334,
      "ius": 9335,
      "Ġxui": 9336,
      "ĠHuáº¥n": 9337,
      "Dr": 9338,
      "TÃ´": 9339,
      "Ġduá»Ĺi": 9340,
      "Tá»·": 9341,
      "Ġrá»įi": 9342,
      "dy": 9343,
      "ĠÄĲÃª": 9344,
      "ĠTÃ¡": 9345,
      "Ġbitcoin": 9346,
      "Ġsum": 9347,
      "Ġngá»Ńi": 9348,
      "TráºŃn": 9349,
      "App": 9350,
      "ĠLÆ°": 9351,
      "âĢĿ-": 9352,
      "ted": 9353,
      "Ġper": 9354,
      "Ġrá»ĳn": 9355,
      "ĠdÆ¡": 9356,
      "Chapter": 9357,
      "160": 9358,
      "ĠuyÃªn": 9359,
      "ealth": 9360,
      "gl": 9361,
      "Ġchá»ķi": 9362,
      "ĠvÅ©ng": 9363,
      "ĠtrÃ¨o": 9364,
      "Ġ090": 9365,
      "ĠMacbook": 9366,
      "1717": 9367,
      "ĠphÃ¨n": 9368,
      "áº¨M": 9369,
      "Ġdáº»": 9370,
      "ĠCang": 9371,
      "ĠGe": 9372,
      "Linh": 9373,
      "Ġnat": 9374,
      "Ġgluc": 9375,
      "ĠngÃ¹ng": 9376,
      "xt": 9377,
      "Ġdich": 9378,
      "Phi": 9379,
      "Ġhon": 9380,
      "XÃ£": 9381,
      "ĠLazada": 9382,
      "âĢ¦âĢĿ.": 9383,
      "ĠTown": 9384,
      "Ġxiáº¿t": 9385,
      "ido": 9386,
      "ĠTouch": 9387,
      "suzu": 9388,
      "ĠvÆ¡i": 9389,
      "ĠMah": 9390,
      "Ġthoi": 9391,
      "ĠthuyÃªn": 9392,
      "Ġ135": 9393,
      "¿ĥ": 9394,
      "Giai": 9395,
      "Land": 9396,
      "Ã¶": 9397,
      "dragon": 9398,
      "ĠnhÃŃu": 9399,
      "ĠAut": 9400,
      "ĠTrá»Ł": 9401,
      "Ġlives": 9402,
      "esus": 9403,
      "ĠNghÄ©": 9404,
      "ĠnÆ°á»Ľu": 9405,
      "ĠAu": 9406,
      "Ġláº½o": 9407,
      "vis": 9408,
      "ĠCry": 9409,
      "å°": 9410,
      "Ġláº«m": 9411,
      "ĠCÃłi": 9412,
      "ÃģC": 9413,
      "ĠnáºŃp": 9414,
      "Ġ(+": 9415,
      "aga": 9416,
      "tÃ¢m": 9417,
      "ĠOS": 9418,
      "Ġ1960": 9419,
      "ĠkÃ©n": 9420,
      "PG": 9421,
      "ĠThÆ°a": 9422,
      "ĠPass": 9423,
      "Ġoi": 9424,
      "Ġhá»ķi": 9425,
      "Ġbit": 9426,
      "ĠCHÃįNH": 9427,
      "dá»ĭch": 9428,
      "een": 9429,
      "ĠXung": 9430,
      "</": 9431,
      "ĠthÄĥ": 9432,
      "Mang": 9433,
      "pire": 9434,
      "Ġword": 9435,
      "yle": 9436,
      "ĠBBC": 9437,
      "âĢ¦).": 9438,
      "Hi": 9439,
      "ju": 9440,
      "elly": 9441,
      "Ġcháº¯p": 9442,
      "ĠBá»ı": 9443,
      "Ġ1200": 9444,
      "HoÃłn": 9445,
      "Nha": 9446,
      "Ġtáº¥c": 9447,
      "hÃłnh": 9448,
      "âĢĭâĢĭ": 9449,
      "ĠUNESCO": 9450,
      "ká»³": 9451,
      "ĠVIN": 9452,
      "QuÃ¢n": 9453,
      "dá»±": 9454,
      "ĠTCVN": 9455,
      "ĠZalo": 9456,
      "Ð¹": 9457,
      "Há»ıi": 9458,
      "Ġnuoc": 9459,
      "ĠPSG": 9460,
      "Vá»£": 9461,
      "fone": 9462,
      "ĠMartin": 9463,
      "Ġcol": 9464,
      "Ġ096": 9465,
      "Ġráº©y": 9466,
      "ĠtuÃ½p": 9467,
      "Ġpar": 9468,
      "ĠHaw": 9469,
      "Ġsáº«m": 9470,
      "ĠKháº©u": 9471,
      "ĠchÃłi": 9472,
      "ĠTÃł": 9473,
      "Ġzin": 9474,
      "Ġvietsub": 9475,
      "TU": 9476,
      "ĠVFF": 9477,
      "ĠNguyen": 9478,
      "ĠHappy": 9479,
      "ĠLáº¡nh": 9480,
      "Ġ230": 9481,
      "ĠBusiness": 9482,
      "Ġmáº£i": 9483,
      "kim": 9484,
      "Ġnhá»ĳt": 9485,
      "ĠHA": 9486,
      "bÃ¬nh": 9487,
      "care": 9488,
      "ĠquÃ¢": 9489,
      "ĠPU": 9490,
      "thÃ¬": 9491,
      "há»¯u": 9492,
      "ĠRau": 9493,
      "ĠStart": 9494,
      "ĠGIA": 9495,
      "ĠTime": 9496,
      "ĠThÃºc": 9497,
      "phÃ²ng": 9498,
      "Khoa": 9499,
      "Ġláº§y": 9500,
      "ĠAct": 9501,
      "ument": 9502,
      "hu": 9503,
      "ĠquÃ¢y": 9504,
      "}.": 9505,
      "ĠtÃŃa": 9506,
      "VÆ°Æ¡ng": 9507,
      "Æ£": 9508,
      "Ġmanga": 9509,
      "ĠÄĳá»Ŀm": 9510,
      "Ġ098": 9511,
      "VÅ©": 9512,
      "phen": 9513,
      "áº¸": 9514,
      "Ġsilicon": 9515,
      "Biáº¿t": 9516,
      "ĠCá»«": 9517,
      "ĠBÃºp": 9518,
      "Ġgá»ıi": 9519,
      "quang": 9520,
      "cá»ķ": 9521,
      "ĠTTT": 9522,
      "Ġhuá»³nh": 9523,
      "Ġâĸ": 9524,
      "ĠngÃ¡y": 9525,
      "ĠMá»ħ": 9526,
      "idan": 9527,
      "Ġkhoanh": 9528,
      "zy": 9529,
      "ĠVene": 9530,
      "?!": 9531,
      "ĠÃ¡ch": 9532,
      "ĠCafe": 9533,
      "eek": 9534,
      "ĠFood": 9535,
      "Äĳiá»ĥm": 9536,
      "åĿ": 9537,
      "å¹´": 9538,
      "Bá»ĳ": 9539,
      "Ġden": 9540,
      "made": 9541,
      "ĠSir": 9542,
      "rolux": 9543,
      "ican": 9544,
      "ĠPhÃªrÃ´": 9545,
      "str": 9546,
      "ĠÄĳÆ°Æ¡c": 9547,
      "èµ": 9548,
      "Ġcá»Ļ": 9549,
      "Ġphone": 9550,
      "ĠChap": 9551,
      "eymar": 9552,
      "ict": 9553,
      "SÃ¡ch": 9554,
      "ĠFre": 9555,
      "ä¹": 9556,
      "ĠÃ´i": 9557,
      "Äĳá»ĭa": 9558,
      "ĠKl": 9559,
      "Ġ0938": 9560,
      "https": 9561,
      "ĠJetstar": 9562,
      "ĠRolex": 9563,
      "=>": 9564,
      "ĠMI": 9565,
      "ĠMÃ£i": 9566,
      "ĠåĲ": 9567,
      "Tá»Ń": 9568,
      "ĠUber": 9569,
      "ĠWC": 9570,
      "Ma": 9571,
      "Ġmet": 9572,
      "Ġá»ī": 9573,
      "ĠIsuzu": 9574,
      "ĠBlackBerry": 9575,
      "ĠæĽ°": 9576,
      ":\"": 9577,
      "thÆ°á»£ng": 9578,
      "City": 9579,
      "Tá»īnh": 9580,
      "ĠPE": 9581,
      "ĠHarry": 9582,
      "ĠGuard": 9583,
      "ĠSav": 9584,
      "Ġfix": 9585,
      "Ġsá»¯ng": 9586,
      "Ġtháº¹n": 9587,
      "ĠLA": 9588,
      "ĠRap": 9589,
      "Ġwas": 9590,
      "ĠTs": 9591,
      "els": 9592,
      "NgÃłnh": 9593,
      "Ġnháºµn": 9594,
[...]
